{
  "version": "1.0",
  "truncation": null,
  "padding": null,
  "added_tokens": [
    {
      "id": 248044,
      "content": "<|endoftext|>",
      "single_word": false,
      "lstrip": false,
      "rstrip": false,
      "normalized": false,
      "special": true
    },
    {
      "id": 248045,
      "content": "<|im_start|>",
      "single_word": false,
      "lstrip": false,
      "rstrip": false,
      "normalized": false,
      "special": true
    },
    {
      "id": 248046,
      "content": "<|im_end|>",
      "single_word": false,
      "lstrip": false,
      "rstrip": false,
      "normalized": false,
      "special": true
    },
    {
      "id": 248047,
      "content": "<|object_ref_start|>",
      "single_word": false,
      "lstrip": false,
      "rstrip": false,
      "normalized": false,
      "special": true
    },
    {
      "id": 248048,
      "content": "<|object_ref_end|>",
      "single_word": false,
      "lstrip": false,
      "rstrip": false,
      "normalized": false,
      "special": true
    },
    {
      "id": 248049,
      "content": "<|box_start|>",
      "single_word": false,
      "lstrip": false,
      "rstrip": false,
      "normalized": false,
      "special": true
    },
    {
      "id": 248050,
      "content": "<|box_end|>",
      "single_word": false,
      "lstrip": false,
      "rstrip": false,
      "normalized": false,
      "special": true
    },
    {
      "id": 248051,
      "content": "<|quad_start|>",
      "single_word": false,
      "lstrip": false,
      "rstrip": false,
      "normalized": false,
      "special": true
    },
    {
      "id": 248052,
      "content": "<|quad_end|>",
      "single_word": false,
      "lstrip": false,
      "rstrip": false,
      "normalized": false,
      "special": true
    },
    {
      "id": 248053,
      "content": "<|vision_start|>",
      "single_word": false,
      "lstrip": false,
      "rstrip": false,
      "normalized": false,
      "special": true
    },
    {
      "id": 248054,
      "content": "<|vision_end|>",
      "single_word": false,
      "lstrip": false,
      "rstrip": false,
      "normalized": false,
      "special": true
    },
    {
      "id": 248055,
      "content": "<|vision_pad|>",
      "single_word": false,
      "lstrip": false,
      "rstrip": false,
      "normalized": false,
      "special": true
    },
    {
      "id": 248056,
      "content": "<|image_pad|>",
      "single_word": false,
      "lstrip": false,
      "rstrip": false,
      "normalized": false,
      "special": true
    },
    {
      "id": 248057,
      "content": "<|video_pad|>",
      "single_word": false,
      "lstrip": false,
      "rstrip": false,
      "normalized": false,
      "special": true
    },
    {
      "id": 248058,
      "content": "<tool_call>",
      "single_word": false,
      "lstrip": false,
      "rstrip": false,
      "normalized": false,
      "special": false
    },
    {
      "id": 248059,
      "content": "</tool_call>",
      "single_word": false,
      "lstrip": false,
      "rstrip": false,
      "normalized": false,
      "special": false
    },
    {
      "id": 248060,
      "content": "<|fim_prefix|>",
      "single_word": false,
      "lstrip": false,
      "rstrip": false,
      "normalized": false,
      "special": false
    },
    {
      "id": 248061,
      "content": "<|fim_middle|>",
      "single_word": false,
      "lstrip": false,
      "rstrip": false,
      "normalized": false,
      "special": false
    },
    {
      "id": 248062,
      "content": "<|fim_suffix|>",
      "single_word": false,
      "lstrip": false,
      "rstrip": false,
      "normalized": false,
      "special": false
    },
    {
      "id": 248063,
      "content": "<|fim_pad|>",
      "single_word": false,
      "lstrip": false,
      "rstrip": false,
      "normalized": false,
      "special": false
    },
    {
      "id": 248064,
      "content": "<|repo_name|>",
      "single_word": false,
      "lstrip": false,
      "rstrip": false,
      "normalized": false,
      "special": false
    },
    {
      "id": 248065,
      "content": "<|file_sep|>",
      "single_word": false,
      "lstrip": false,
      "rstrip": false,
      "normalized": false,
      "special": false
    },
    {
      "id": 248066,
      "content": "<tool_response>",
      "single_word": false,
      "lstrip": false,
      "rstrip": false,
      "normalized": false,
      "special": false
    },
    {
      "id": 248067,
      "content": "</tool_response>",
      "single_word": false,
      "lstrip": false,
      "rstrip": false,
      "normalized": false,
      "special": false
    },
    {
      "id": 248068,
      "content": "<think>",
      "single_word": false,
      "lstrip": false,
      "rstrip": false,
      "normalized": false,
      "special": false
    },
    {
      "id": 248069,
      "content": "</think>",
      "single_word": false,
      "lstrip": false,
      "rstrip": false,
      "normalized": false,
      "special": false
    },
    {
      "id": 248070,
      "content": "<|audio_start|>",
      "single_word": false,
      "lstrip": false,
      "rstrip": false,
      "normalized": false,
      "special": true
    },
    {
      "id": 248071,
      "content": "<|audio_end|>",
      "single_word": false,
      "lstrip": false,
      "rstrip": false,
      "normalized": false,
      "special": true
    },
    {
      "id": 248072,
      "content": "<tts_pad>",
      "single_word": false,
      "lstrip": false,
      "rstrip": false,
      "normalized": false,
      "special": true
    },
    {
      "id": 248073,
      "content": "<tts_text_bos>",
      "single_word": false,
      "lstrip": false,
      "rstrip": false,
      "normalized": false,
      "special": true
    },
    {
      "id": 248074,
      "content": "<tts_text_eod>",
      "single_word": false,
      "lstrip": false,
      "rstrip": false,
      "normalized": false,
      "special": true
    },
    {
      "id": 248075,
      "content": "<tts_text_bos_single>",
      "single_word": false,
      "lstrip": false,
      "rstrip": false,
      "normalized": false,
      "special": true
    },
    {
      "id": 248076,
      "content": "<|audio_pad|>",
      "single_word": false,
      "lstrip": false,
      "rstrip": false,
      "normalized": false,
      "special": true
    }
  ],
  "normalizer": {
    "type": "NFC"
  },
  "pre_tokenizer": {
    "type": "Sequence",
    "pretokenizers": [
      {
        "type": "Split",
        "pattern": {
          "Regex": "(?i:'s|'t|'re|'ve|'m|'ll|'d)|[^\\r\\n\\p{L}\\p{N}]?[\\p{L}\\p{M}]+|\\p{N}| ?[^\\s\\p{L}\\p{M}\\p{N}]+[\\r\\n]*|\\s*[\\r\\n]+|\\s+(?!\\S)|\\s+"
        },
        "behavior": "Isolated",
        "invert": false
      },
      {
        "type": "ByteLevel",
        "add_prefix_space": false,
        "trim_offsets": false,
        "use_regex": false
      }
    ]
  },
  "post_processor": {
    "type": "ByteLevel",
    "add_prefix_space": false,
    "trim_offsets": false,
    "use_regex": false
  },
  "decoder": {
    "type": "ByteLevel",
    "add_prefix_space": false,
    "trim_offsets": false,
    "use_regex": false
  },
  "model": {
    "type": "BPE",
    "dropout": null,
    "unk_token": null,
    "continuing_subword_prefix": "",
    "end_of_word_suffix": "",
    "fuse_unk": false,
    "byte_fallback": false,
    "ignore_merges": false,
    "vocab": {
      "!": 0,
      "\"": 1,
      "#": 2,
      "$": 3,
      "%": 4,
      "&": 5,
      "'": 6,
      "(": 7,
      ")": 8,
      "*": 9,
      "+": 10,
      ",": 11,
      "-": 12,
      ".": 13,
      "/": 14,
      "0": 15,
      "1": 16,
      "2": 17,
      "3": 18,
      "4": 19,
      "5": 20,
      "6": 21,
      "7": 22,
      "8": 23,
      "9": 24,
      ":": 25,
      ";": 26,
      "<": 27,
      "=": 28,
      ">": 29,
      "?": 30,
      "@": 31,
      "A": 32,
      "B": 33,
      "C": 34,
      "D": 35,
      "E": 36,
      "F": 37,
      "G": 38,
      "H": 39,
      "I": 40,
      "J": 41,
      "K": 42,
      "L": 43,
      "M": 44,
      "N": 45,
      "O": 46,
      "P": 47,
      "Q": 48,
      "R": 49,
      "S": 50,
      "T": 51,
      "U": 52,
      "V": 53,
      "W": 54,
      "X": 55,
      "Y": 56,
      "Z": 57,
      "[": 58,
      "\\": 59,
      "]": 60,
      "^": 61,
      "_": 62,
      "`": 63,
      "a": 64,
      "b": 65,
      "c": 66,
      "d": 67,
      "e": 68,
      "f": 69,
      "g": 70,
      "h": 71,
      "i": 72,
      "j": 73,
      "k": 74,
      "l": 75,
      "m": 76,
      "n": 77,
      "o": 78,
      "p": 79,
      "q": 80,
      "r": 81,
      "s": 82,
      "t": 83,
      "u": 84,
      "v": 85,
      "w": 86,
      "x": 87,
      "y": 88,
      "z": 89,
      "{": 90,
      "|": 91,
      "}": 92,
      "~": 93,
      "¡": 94,
      "¢": 95,
      "£": 96,
      "¤": 97,
      "¥": 98,
      "¦": 99,
      "§": 100,
      "¨": 101,
      "©": 102,
      "ª": 103,
      "«": 104,
      "¬": 105,
      "®": 106,
      "¯": 107,
      "°": 108,
      "±": 109,
      "²": 110,
      "³": 111,
      "´": 112,
      "µ": 113,
      "¶": 114,
      "·": 115,
      "¸": 116,
      "¹": 117,
      "º": 118,
      "»": 119,
      "¼": 120,
      "½": 121,
      "¾": 122,
      "¿": 123,
      "À": 124,
      "Á": 125,
      "Â": 126,
      "Ã": 127,
      "Ä": 128,
      "Å": 129,
      "Æ": 130,
      "Ç": 131,
      "È": 132,
      "É": 133,
      "Ê": 134,
      "Ë": 135,
      "Ì": 136,
      "Í": 137,
      "Î": 138,
      "Ï": 139,
      "Ð": 140,
      "Ñ": 141,
      "Ò": 142,
      "Ó": 143,
      "Ô": 144,
      "Õ": 145,
      "Ö": 146,
      "×": 147,
      "Ø": 148,
      "Ù": 149,
      "Ú": 150,
      "Û": 151,
      "Ü": 152,
      "Ý": 153,
      "Þ": 154,
      "ß": 155,
      "à": 156,
      "á": 157,
      "â": 158,
      "ã": 159,
      "ä": 160,
      "å": 161,
      "æ": 162,
      "ç": 163,
      "è": 164,
      "é": 165,
      "ê": 166,
      "ë": 167,
      "ì": 168,
      "í": 169,
      "î": 170,
      "ï": 171,
      "ð": 172,
      "ñ": 173,
      "ò": 174,
      "ó": 175,
      "ô": 176,
      "õ": 177,
      "ö": 178,
      "÷": 179,
      "ø": 180,
      "ù": 181,
      "ú": 182,
      "û": 183,
      "ü": 184,
      "ý": 185,
      "þ": 186,
      "ÿ": 187,
      "Ā": 188,
      "ā": 189,
      "Ă": 190,
      "ă": 191,
      "Ą": 192,
      "ą": 193,
      "Ć": 194,
      "ć": 195,
      "Ĉ": 196,
      "ĉ": 197,
      "Ċ": 198,
      "ċ": 199,
      "Č": 200,
      "č": 201,
      "Ď": 202,
      "ď": 203,
      "Đ": 204,
      "đ": 205,
      "Ē": 206,
      "ē": 207,
      "Ĕ": 208,
      "ĕ": 209,
      "Ė": 210,
      "ė": 211,
      "Ę": 212,
      "ę": 213,
      "Ě": 214,
      "ě": 215,
      "Ĝ": 216,
      "ĝ": 217,
      "Ğ": 218,
      "ğ": 219,
      "Ġ": 220,
      "ġ": 221,
      "Ģ": 222,
      "ģ": 223,
      "Ĥ": 224,
      "ĥ": 225,
      "Ħ": 226,
      "ħ": 227,
      "Ĩ": 228,
      "ĩ": 229,
      "Ī": 230,
      "ī": 231,
      "Ĭ": 232,
      "ĭ": 233,
      "Į": 234,
      "į": 235,
      "İ": 236,
      "ı": 237,
      "Ĳ": 238,
      "ĳ": 239,
      "Ĵ": 240,
      "ĵ": 241,
      "Ķ": 242,
      "ķ": 243,
      "ĸ": 244,
      "Ĺ": 245,
      "ĺ": 246,
      "Ļ": 247,
      "ļ": 248,
      "Ľ": 249,
      "ľ": 250,
      "Ŀ": 251,
      "ŀ": 252,
      "Ł": 253,
      "ł": 254,
      "Ń": 255,
      "ĠĠ": 256,
      "ĠĠĠĠ": 257,
      "in": 258,
      "Ġt": 259,
      "ĠĠĠĠĠĠĠĠ": 260,
      "er": 261,
      "ĠĠĠ": 262,
      "on": 263,
      "Ġa": 264,
      "re": 265,
      "at": 266,
      "st": 267,
      "en": 268,
      "or": 269,
      "Ġth": 270,
      "ĊĊ": 271,
      "Ġc": 272,
      "le": 273,
      "Ġs": 274,
      "it": 275,
      "an": 276,
      "ar": 277,
      "al": 278,
      "Ġthe": 279,
      "Ġp": 280,
      "Ġf": 281,
      "ou": 282,
      "Ġ=": 283,
      "is": 284,
      "ĠĠĠĠĠĠĠ": 285,
      "ing": 286,
      "es": 287,
      "Ġw": 288,
      "ion": 289,
      "ed": 290,
      "ic": 291,
      "Ġb": 292,
      "Ġd": 293,
      "et": 294,
      "Ġm": 295,
      "Ġo": 296,
      "ĉĉ": 297,
      "ro": 298,
      "as": 299,
      "el": 300,
      "ct": 301,
      "nd": 302,
      "Ġin": 303,
      "Ġh": 304,
      "ent": 305,
      "id": 306,
      "Ġn": 307,
      "am": 308,
      "ĠĠĠĠĠĠĠĠĠĠĠ": 309,
      "Ġto": 310,
      "Ġre": 311,
      "--": 312,
      "Ġ{": 313,
      "Ġof": 314,
      "om": 315,
      "im": 316,
      "čĊ": 317,
      "Ġ(": 318,
      "il": 319,
      "//": 320,
      "Ġand": 321,
      "ur": 322,
      "se": 323,
      "Ġl": 324,
      "ex": 325,
      "ĠS": 326,
      "ad": 327,
      "Ġ\"": 328,
      "ch": 329,
      "ut": 330,
      "if": 331,
      "**": 332,
      "Ġ}": 333,
      "em": 334,
      "ol": 335,
      "ĠĠĠĠĠĠĠĠĠĠĠĠĠĠĠĠ": 336,
      "th": 337,
      "Ġg": 338,
      "ig": 339,
      "iv": 340,
      "ce": 341,
      "od": 342,
      "Ġv": 343,
      "ate": 344,
      "ĠT": 345,
      "ag": 346,
      "ay": 347,
      "Ġ*": 348,
      "ot": 349,
      "us": 350,
      "ĠC": 351,
      "Ġst": 352,
      "ĠI": 353,
      "un": 354,
      "ul": 355,
      "ue": 356,
      "ĠA": 357,
      "ow": 358,
      "Ġ'": 359,
      "ew": 360,
      "Ġ<": 361,
      "ation": 362,
      "()": 363,
      "Ġfor": 364,
      "ab": 365,
      "ort": 366,
      "um": 367,
      "ame": 368,
      "Ġis": 369,
      "pe": 370,
      "tr": 371,
      "ck": 372,
      "âĢ": 373,
      "Ġy": 374,
      "ist": 375,
      "----": 376,
      "he": 377,
      "Ġe": 378,
      "lo": 379,
      "ĠM": 380,
      "Ġbe": 381,
      "ers": 382,
      "Ġon": 383,
      "Ġcon": 384,
      "ap": 385,
      "ub": 386,
      "ĠP": 387,
      "ĠĠĠĠĠĠĠĠĠĠĠĠĠĠĠ": 388,
      "ass": 389,
      "int": 390,
      "ly": 391,
      "urn": 392,
      "Ġ$": 393,
      "av": 394,
      "port": 395,
      "ir": 396,
      "->": 397,
      "nt": 398,
      "ction": 399,
      "end": 400,
      "Ġde": 401,
      "ith": 402,
      "out": 403,
      "turn": 404,
      "our": 405,
      "ĠĠĠĠĠ": 406,
      "lic": 407,
      "res": 408,
      "pt": 409,
      "==": 410,
      "Ġthis": 411,
      "Ġwh": 412,
      "Ġif": 413,
      "ĠD": 414,
      "ver": 415,
      "age": 416,
      "ĠB": 417,
      "ht": 418,
      "ext": 419,
      "=\"": 420,
      "Ġthat": 421,
      "****": 422,
      "ĠR": 423,
      "Ġit": 424,
      "ess": 425,
      "ĠF": 426,
      "Ġr": 427,
      "os": 428,
      "and": 429,
      "Ġas": 430,
      "ect": 431,
      "ke": 432,
      "rom": 433,
      "Ġ//": 434,
      "con": 435,
      "ĠL": 436,
      "(\"": 437,
      "qu": 438,
      "lass": 439,
      "Ġwith": 440,
      "iz": 441,
      "de": 442,
      "ĠN": 443,
      "Ġal": 444,
      "op": 445,
      "up": 446,
      "get": 447,
      "ile": 448,
      "Ġan": 449,
      "ata": 450,
      "ore": 451,
      "ri": 452,
      "Ġpro": 453,
      "ĉĉĉĉ": 454,
      "ter": 455,
      "ain": 456,
      "ĠW": 457,
      "ĠE": 458,
      "Ġcom": 459,
      "Ġreturn": 460,
      "art": 461,
      "ĠH": 462,
      "ack": 463,
      "import": 464,
      "ublic": 465,
      "Ġor": 466,
      "est": 467,
      "ment": 468,
      "ĠG": 469,
      "able": 470,
      "Ġ-": 471,
      "ine": 472,
      "ill": 473,
      "ind": 474,
      "ere": 475,
      "::": 476,
      "ity": 477,
      "Ġ+": 478,
      "Ġtr": 479,
      "elf": 480,
      "ight": 481,
      "('": 482,
      "orm": 483,
      "ult": 484,
      "str": 485,
      "..": 486,
      "\",": 487,
      "Ġyou": 488,
      "ype": 489,
      "pl": 490,
      "Ġnew": 491,
      "Ġj": 492,
      "ĠĠĠĠĠĠĠĠĠĠĠĠĠĠĠĠĠĠĠ": 493,
      "Ġfrom": 494,
      "Ġex": 495,
      "ĠO": 496,
      "ld": 497,
      "Ġ[": 498,
      "oc": 499,
      "Ġse": 500,
      "Ġle": 501,
      "--------": 502,
      ".s": 503,
      "',": 504,
      "ant": 505,
      "Ġat": 506,
      "ase": 507,
      ".c": 508,
      "Ġch": 509,
      "</": 510,
      "ave": 511,
      "ang": 512,
      "Ġare": 513,
      "Ġint": 514,
      "âĢĻ": 515,
      "_t": 516,
      "ert": 517,
      "ial": 518,
      "act": 519,
      "ive": 520,
      "ode": 521,
      "ost": 522,
      "Ġclass": 523,
      "Ġnot": 524,
      "og": 525,
      "ord": 526,
      "alue": 527,
      "all": 528,
      "ff": 529,
      "ont": 530,
      "ime": 531,
      "are": 532,
      "ĠU": 533,
      "Ġpr": 534,
      "Ġ:": 535,
      "ies": 536,
      "ize": 537,
      "ure": 538,
      "Ġby": 539,
      "ire": 540,
      ".p": 541,
      "Ġsh": 542,
      "ice": 543,
      "ast": 544,
      "ption": 545,
      "tring": 546,
      "ok": 547,
      "__": 548,
      "cl": 549,
      "##": 550,
      "Ġhe": 551,
      "ard": 552,
      ").": 553,
      "Ġ@": 554,
      "iew": 555,
      "ĉĉĉ": 556,
      "Ġwas": 557,
      "ip": 558,
      "this": 559,
      "Ġu": 560,
      "ĠThe": 561,
      "ide": 562,
      "ace": 563,
      "ib": 564,
      "ac": 565,
      "rou": 566,
      "Ġwe": 567,
      "ject": 568,
      "Ġpublic": 569,
      "ak": 570,
      "ve": 571,
      "ath": 572,
      "oid": 573,
      "Ġ=>": 574,
      "ust": 575,
      "que": 576,
      "Ġres": 577,
      "))": 578,
      "'s": 579,
      "Ġk": 580,
      "ans": 581,
      "yst": 582,
      "unction": 583,
      "********": 584,
      "Ġi": 585,
      "Ġus": 586,
      "pp": 587,
      "one": 588,
      "ail": 589,
      "====": 590,
      "name": 591,
      "Ġstr": 592,
      "Ġ/": 593,
      "Ġ&": 594,
      "ach": 595,
      "div": 596,
      "ystem": 597,
      "ell": 598,
      "Ġhave": 599,
      "err": 600,
      "ould": 601,
      "ull": 602,
      "pon": 603,
      "ĠJ": 604,
      "_p": 605,
      "Ġ==": 606,
      "ign": 607,
      "St": 608,
      "Ġpl": 609,
      "form": 610,
      "put": 611,
      "ount": 612,
      "dd": 613,
      "ite": 614,
      "Ġget": 615,
      "rr": 616,
      "ome": 617,
      "ĠâĢ": 618,
      "aram": 619,
      "cc": 620,
      "Ġ*/": 621,
      "ER": 622,
      "In": 623,
      "les": 624,
      "_s": 625,
      "ong": 626,
      "ie": 627,
      "Ġcan": 628,
      "ĠV": 629,
      "erv": 630,
      "pr": 631,
      "Ġun": 632,
      "row": 633,
      "ber": 634,
      "Ġdo": 635,
      "ll": 636,
      "Ġel": 637,
      "Ġself": 638,
      "ated": 639,
      "ary": 640,
      "Ġ.": 641,
      "']": 642,
      "ud": 643,
      "Ġen": 644,
      "ĠTh": 645,
      "ĠĠĠĠĠĠĠĠĠĠĠĠĠĠĠĠĠĠĠĠĠĠĠ": 646,
      "te": 647,
      "_c": 648,
      "uct": 649,
      "Ġab": 650,
      "ork": 651,
      ".get": 652,
      "Ġ#": 653,
      "aw": 654,
      "ress": 655,
      "ob": 656,
      "Name": 657,
      "app": 658,
      "['": 659,
      "Ġall": 660,
      "ory": 661,
      "ition": 662,
      "ance": 663,
      "ear": 664,
      "Ġcont": 665,
      "vent": 666,
      "ia": 667,
      "Ġwill": 668,
      "IN": 669,
      "ĠĠĠĠĠĠĠĠĠ": 670,
      "return": 671,
      "Ġ</": 672,
      "data": 673,
      "Re": 674,
      "ple": 675,
      "ild": 676,
      "ther": 677,
      "Ġyour": 678,
      "($": 679,
      "Ġout": 680,
      "),": 681,
      "Ġhas": 682,
      "String": 683,
      "so": 684,
      "Ġup": 685,
      "ax": 686,
      "Ġdef": 687,
      "Ġbo": 688,
      "ge": 689,
      "alse": 690,
      "ON": 691,
      "per": 692,
      "ich": 693,
      "Ġbut": 694,
      "ĠĊ": 695,
      "Ġ_": 696,
      "_m": 697,
      "add": 698,
      "quest": 699,
      "odel": 700,
      "self": 701,
      "ery": 702,
      "ft": 703,
      "ens": 704,
      "////": 705,
      "ake": 706,
      ".C": 707,
      "Ġgo": 708,
      "Ġfunction": 709,
      "ĠK": 710,
      "ivate": 711,
      "Ġim": 712,
      "Ġconst": 713,
      ".t": 714,
      "Ġvoid": 715,
      "Ġset": 716,
      "ĠSystem": 717,
      "cri": 718,
      "li": 719,
      "ĉif": 720,
      ".m": 721,
      "ally": 722,
      "set": 723,
      "ep": 724,
      "âĢĻs": 725,
      "bo": 726,
      "def": 727,
      "Ġme": 728,
      "Ġ!": 729,
      "atch": 730,
      "\">": 731,
      "ec": 732,
      "ĠIn": 733,
      "ph": 734,
      "Ġ|": 735,
      "_f": 736,
      "Ġvar": 737,
      "ence": 738,
      "Id": 739,
      "ree": 740,
      "ink": 741,
      "lect": 742,
      "ug": 743,
      "eth": 744,
      "Ġelse": 745,
      "----------------": 746,
      "cont": 747,
      "Ġso": 748,
      "atic": 749,
      "Ġlo": 750,
      "pro": 751,
      "ton": 752,
      "ss": 753,
      "own": 754,
      "abel": 755,
      "oint": 756,
      "ous": 757,
      "eld": 758,
      "ST": 759,
      "The": 760,
      "ĠĠĠĠĠĠĠĠĠĠĠĠĠĠĠĠĠĠĠĠĠĠĠĠĠĠĠĠĠĠĠĠ": 761,
      "RE": 762,
      "\":": 763,
      "olor": 764,
      "tp": 765,
      "eg": 766,
      "key": 767,
      "ude": 768,
      "ĠSt": 769,
      "ound": 770,
      "Ġar": 771,
      "ener": 772,
      "ser": 773,
      "bject": 774,
      "essage": 775,
      "fer": 776,
      "Ġmore": 777,
      "ations": 778,
      "ents": 779,
      "Ġhis": 780,
      "Ġthey": 781,
      ".S": 782,
      "ĠY": 783,
      "use": 784,
      "ne": 785,
      "ish": 786,
      "old": 787,
      "_d": 788,
      "io": 789,
      "ield": 790,
      "Ġper": 791,
      "Cont": 792,
      "ings": 793,
      "####": 794,
      "Ġdata": 795,
      "Ġsa": 796,
      "ef": 797,
      "fo": 798,
      "Ġone": 799,
      "eng": 800,
      "Ġdis": 801,
      "AT": 802,
      "Ġname": 803,
      "Ġtrue": 804,
      "val": 805,
      "led": 806,
      ".f": 807,
      "Ġne": 808,
      "Ġend": 809,
      ".T": 810,
      "cre": 811,
      "ark": 812,
      "log": 813,
      "Ex": 814,
      "error": 815,
      "_id": 816,
      "urre": 817,
      "ange": 818,
      "Ġnull": 819,
      "rray": 820,
      "Ġmy": 821,
      "pan": 822,
      "ict": 823,
      "ator": 824,
      "View": 825,
      "List": 826,
      "ĉreturn": 827,
      "âĢĿ": 828,
      "Ġpre": 829,
      "Ġx": 830,
      "clude": 831,
      "arg": 832,
      "ov": 833,
      ".h": 834,
      "Ġ>": 835,
      "Ġtheir": 836,
      "')": 837,
      "irst": 838,
      "ick": 839,
      "gh": 840,
      "LE": 841,
      "OR": 842,
      "Ġprivate": 843,
      "tem": 844,
      "čĊčĊ": 845,
      "user": 846,
      "Ġ)": 847,
      "com": 848,
      ".A": 849,
      "Ġid": 850,
      "read": 851,
      "Ġwho": 852,
      "_b": 853,
      "Ġtime": 854,
      "Ġman": 855,
      "ry": 856,
      "========": 857,
      "roup": 858,
      "rop": 859,
      "public": 860,
      "vel": 861,
      "umber": 862,
      "ble": 863,
      "Ġwhich": 864,
      "****************": 865,
      "Ġany": 866,
      "Ġfalse": 867,
      "we": 868,
      "Ġvalue": 869,
      "Ġli": 870,
      "\")": 871,
      "nder": 872,
      "gr": 873,
      "Ġno": 874,
      "param": 875,
      "fig": 876,
      ".com": 877,
      "Ġapp": 878,
      "_l": 879,
      "ions": 880,
      ".D": 881,
      "ĠCh": 882,
      "Ġabout": 883,
      "Ġadd": 884,
      "Ġsu": 885,
      "Ġstring": 886,
      "ID": 887,
      "Ġover": 888,
      "string": 889,
      ".l": 890,
      "ource": 891,
      "_C": 892,
      "Ġqu": 893,
      "ĠString": 894,
      "ca": 895,
      "SE": 896,
      "Ġro": 897,
      "sh": 898,
      "ual": 899,
      "Type": 900,
      "son": 901,
      "new": 902,
      "ern": 903,
      "Ġag": 904,
      "AR": 905,
      "].": 906,
      "Ġ?": 907,
      "ical": 908,
      "Ġdes": 909,
      "uth": 910,
      "ix": 911,
      "ays": 912,
      "Ġtype": 913,
      "'t": 914,
      "ault": 915,
      "Ġinter": 916,
      "var": 917,
      ".b": 918,
      "Ġpart": 919,
      ".d": 920,
      "urrent": 921,
      "IT": 922,
      "EN": 923,
      "enc": 924,
      "(f": 925,
      "ra": 926,
      "value": 927,
      "cho": 928,
      "utton": 929,
      "ose": 930,
      "Ġ!=": 931,
      "ater": 932,
      "Ã©": 933,
      "reate": 934,
      "oll": 935,
      "pos": 936,
      "yle": 937,
      "ng": 938,
      "AL": 939,
      "using": 940,
      "ames": 941,
      "ates": 942,
      "ely": 943,
      "Ġwork": 944,
      "Ġem": 945,
      "inal": 946,
      "Ġsp": 947,
      "Ġwhen": 948,
      ".set": 949,
      "ĠĠĠĠĠĠ": 950,
      "to": 951,
      "quire": 952,
      "indow": 953,
      "lement": 954,
      "pect": 955,
      "ash": 956,
      "[i": 957,
      "Ġuse": 958,
      ".F": 959,
      "pec": 960,
      "Ġad": 961,
      "ove": 962,
      "ception": 963,
      "ength": 964,
      "include": 965,
      "ader": 966,
      "ĠĠĠĠĠĠĠĠĠĠĠĠĠĠĠĠĠĠĠĠĠĠĠĠĠĠĠ": 967,
      "atus": 968,
      "Th": 969,
      "itle": 970,
      "rit": 971,
      "void": 972,
      "().": 973,
      "Ġoff": 974,
      "Ġother": 975,
      "Ġ&&": 976,
      "ms": 977,
      "Ġbeen": 978,
      "Ġte": 979,
      "ml": 980,
      "co": 981,
      "nc": 982,
      "ervice": 983,
      "Ġ%": 984,
      "ann": 985,
      "ade": 986,
      "ĊĊĊĊ": 987,
      "lock": 988,
      "const": 989,
      "ponse": 990,
      "Ġsup": 991,
      "++": 992,
      "date": 993,
      "Ġacc": 994,
      "Ġhad": 995,
      "Ġbu": 996,
      "ĠRe": 997,
      "Ġwere": 998,
      "Ġfile": 999,
      "Ġwould": 1000,
      "ĠâĢľ": 1001,
      "ven": 1002,
      "iss": 1003,
      "Ġour": 1004,
      "class": 1005,
      "raw": 1006,
      "Ġyear": 1007,
      "Data": 1008,
      "Ġval": 1009,
      "Ġsome": 1010,
      "fter": 1011,
      "ys": 1012,
      "Ġ///": 1013,
      "round": 1014,
      "view": 1015,
      "Ġpe": 1016,
      "Ġthere": 1017,
      "Ġsaid": 1018,
      "du": 1019,
      "of": 1020,
      "line": 1021,
      "/*": 1022,
      "duct": 1023,
      "Ġher": 1024,
      "ĠĠĠĠĠĠĠĠĠĠĠĠĠ": 1025,
      "Res": 1026,
      "Ġco": 1027,
      "Ġcomm": 1028,
      "ise": 1029,
      "min": 1030,
      "ĠĠĠĠĊ": 1031,
      "#include": 1032,
      "ethod": 1033,
      ".P": 1034,
      "ute": 1035,
      "Ġass": 1036,
      "Int": 1037,
      "ask": 1038,
      "loc": 1039,
      "Ġlike": 1040,
      "ody": 1041,
      "Ġlet": 1042,
      "load": 1043,
      "Ġam": 1044,
      "rol": 1045,
      "Ġgr": 1046,
      "yp": 1047,
      "Ġalso": 1048,
      "ĠIt": 1049,
      "url": 1050,
      "ific": 1051,
      "ors": 1052,
      "_P": 1053,
      "_n": 1054,
      "igh": 1055,
      "Ġthan": 1056,
      "Com": 1057,
      "AN": 1058,
      "UL": 1059,
      "ating": 1060,
      "ĠThis": 1061,
      "ref": 1062,
      "_S": 1063,
      "Ġstatic": 1064,
      "roll": 1065,
      "Ġjust": 1066,
      "Ġresult": 1067,
      "ian": 1068,
      "idth": 1069,
      "Ġthem": 1070,
      "der": 1071,
      "reak": 1072,
      "Con": 1073,
      "://": 1074,
      "ule": 1075,
      "...": 1076,
      "arch": 1077,
      "ement": 1078,
      "Ġ<<": 1079,
      "ush": 1080,
      "ense": 1081,
      "arr": 1082,
      "Ġinto": 1083,
      "cess": 1084,
      "amp": 1085,
      "ied": 1086,
      "ument": 1087,
      "Ġ\\": 1088,
      "],": 1089,
      "wo": 1090,
      "als": 1091,
      "Ġwhat": 1092,
      "anc": 1093,
      "Value": 1094,
      "='": 1095,
      "olum": 1096,
      "Ġpos": 1097,
      "ages": 1098,
      "ayer": 1099,
      "Ġsc": 1100,
      "ues": 1101,
      "_T": 1102,
      "Ġlist": 1103,
      "(s": 1104,
      "Ġcase": 1105,
      "Ch": 1106,
      "ĉĉĉĉĉ": 1107,
      "////////": 1108,
      "ponent": 1109,
      "Ġz": 1110,
      "Ġkn": 1111,
      "let": 1112,
      "DE": 1113,
      "red": 1114,
      "Ġfe": 1115,
      "Ġ,": 1116,
      "(t": 1117,
      "Ġfirst": 1118,
      "word": 1119,
      "Ġimport": 1120,
      "Ġact": 1121,
      "Ġchar": 1122,
      "CT": 1123,
      "ĠTr": 1124,
      "ople": 1125,
      "={": 1126,
      "ĉf": 1127,
      "ient": 1128,
      "cent": 1129,
      ".j": 1130,
      "lection": 1131,
      "Ġonly": 1132,
      "Ġprint": 1133,
      "mer": 1134,
      ".W": 1135,
      "ock": 1136,
      "Ġ--": 1137,
      "Text": 1138,
      "Ġop": 1139,
      "ank": 1140,
      "Ġits": 1141,
      "Ġback": 1142,
      "[\"": 1143,
      "Ġneed": 1144,
      "Ġcl": 1145,
      "Ġsub": 1146,
      "Ġla": 1147,
      "((": 1148,
      ".\"": 1149,
      "Object": 1150,
      "Ġstart": 1151,
      "file": 1152,
      "(self": 1153,
      "ner": 1154,
      "ey": 1155,
      "Ġuser": 1156,
      "Ġent": 1157,
      "ĠCom": 1158,
      "its": 1159,
      "ĠCon": 1160,
      "ouble": 1161,
      "ower": 1162,
      "item": 1163,
      "very": 1164,
      "ĠWe": 1165,
      "lick": 1166,
      "ĠQ": 1167,
      "php": 1168,
      "ttp": 1169,
      "':": 1170,
      "ics": 1171,
      "Ġunder": 1172,
      ".L": 1173,
      ");": 1174,
      "ices": 1175,
      "Ġreg": 1176,
      "ĉpublic": 1177,
      "SS": 1178,
      "Ġthen": 1179,
      "reat": 1180,
      "ious": 1181,
      ".G": 1182,
      "ek": 1183,
      "irect": 1184,
      "heck": 1185,
      "cript": 1186,
      "ning": 1187,
      "ĠUn": 1188,
      "Ġmay": 1189,
      "ĠWh": 1190,
      "Bo": 1191,
      "Item": 1192,
      "struct": 1193,
      ".st": 1194,
      "ream": 1195,
      "ible": 1196,
      "loat": 1197,
      "Ġorg": 1198,
      "und": 1199,
      "sum": 1200,
      "_in": 1201,
      "../": 1202,
      "_M": 1203,
      "Ġhow": 1204,
      "rite": 1205,
      "To": 1206,
      "ww": 1207,
      "Ġpeople": 1208,
      "index": 1209,
      ".n": 1210,
      "http": 1211,
      "(m": 1212,
      "ector": 1213,
      "Ġind": 1214,
      "Ġjav": 1215,
      "ĠHe": 1216,
      "_st": 1217,
      "ful": 1218,
      "ole": 1219,
      "Ġshould": 1220,
      "opy": 1221,
      "elp": 1222,
      "ier": 1223,
      "_name": 1224,
      "erson": 1225,
      "ION": 1226,
      "ote": 1227,
      "Ġtest": 1228,
      "Ġbet": 1229,
      "rror": 1230,
      "ular": 1231,
      "ãĢ": 1232,
      "ĠÐ": 1233,
      "bs": 1234,
      "ting": 1235,
      "Ġmake": 1236,
      "Tr": 1237,
      "Ġafter": 1238,
      "arget": 1239,
      "RO": 1240,
      "olumn": 1241,
      "rc": 1242,
      "_re": 1243,
      "define": 1244,
      "Ġright": 1245,
      "right": 1246,
      "day": 1247,
      "Ġlong": 1248,
      "[]": 1249,
      "(p": 1250,
      "td": 1251,
      "cond": 1252,
      "ĠPro": 1253,
      "Ġrem": 1254,
      "ptions": 1255,
      "vid": 1256,
      ".g": 1257,
      "Ġext": 1258,
      "Ġ__": 1259,
      "pace": 1260,
      "mp": 1261,
      "Ġmin": 1262,
      "stance": 1263,
      "air": 1264,
      "action": 1265,
      "wh": 1266,
      "type": 1267,
      "util": 1268,
      "ait": 1269,
      "<?": 1270,
      "IC": 1271,
      "text": 1272,
      "Ġph": 1273,
      "Ġfl": 1274,
      ".M": 1275,
      "ccess": 1276,
      "br": 1277,
      "fore": 1278,
      "ersion": 1279,
      ".re": 1280,
      "ateg": 1281,
      "Ġloc": 1282,
      "ins": 1283,
      "-s": 1284,
      "trib": 1285,
      "ĠInt": 1286,
      "Ġarray": 1287,
      ",\"": 1288,
      "Pro": 1289,
      "(c": 1290,
      "ession": 1291,
      "Ġshe": 1292,
      "\"]": 1293,
      "aph": 1294,
      "Ġexp": 1295,
      "erty": 1296,
      "ĠSe": 1297,
      "Ġpar": 1298,
      "unc": 1299,
      "ET": 1300,
      "Ġread": 1301,
      "print": 1302,
      "Ġrel": 1303,
      "Ġform": 1304,
      "Ġdr": 1305,
      "Exception": 1306,
      "input": 1307,
      "Ġtrans": 1308,
      "########": 1309,
      "order": 1310,
      "By": 1311,
      "Ġaw": 1312,
      "ities": 1313,
      "uff": 1314,
      "play": 1315,
      ".add": 1316,
      "ĠâĢĵ": 1317,
      "Ġwant": 1318,
      "Ġcomp": 1319,
      "ments": 1320,
      "Ġ||": 1321,
      "az": 1322,
      "be": 1323,
      "Ġnumber": 1324,
      "Ġrequire": 1325,
      "ĠEx": 1326,
      "Ġcol": 1327,
      "Ġkey": 1328,
      "ember": 1329,
      "Ġtwo": 1330,
      "Ġsize": 1331,
      "Ġwhere": 1332,
      "UT": 1333,
      "result": 1334,
      "ĠĠĠĠĠĠĠĠĠĠĠĠĠĠĠĠĠĠĠĠĠĠĠĠĠĠĠĠĠĠĠ": 1335,
      "ough": 1336,
      "orld": 1337,
      "ood": 1338,
      "uch": 1339,
      "ative": 1340,
      "ger": 1341,
      "arent": 1342,
      "Ġ/*": 1343,
      "Ġarg": 1344,
      "Ġwhile": 1345,
      "(this": 1346,
      "Ġrec": 1347,
      "Ġdif": 1348,
      "State": 1349,
      "Ġspec": 1350,
      "ride": 1351,
      "_F": 1352,
      "Ġlook": 1353,
      "AM": 1354,
      "ility": 1355,
      "eter": 1356,
      "âĢĻt": 1357,
      "ĊĊĊ": 1358,
      "ayout": 1359,
      "--------------------------------": 1360,
      "ager": 1361,
      "Ġcould": 1362,
      "Ġbr": 1363,
      "ends": 1364,
      "ures": 1365,
      "Ġknow": 1366,
      "ets": 1367,
      "ĠIf": 1368,
      "ĠSh": 1369,
      ".w": 1370,
      "back": 1371,
      "Ġser": 1372,
      "Ġ+=": 1373,
      "Ġfr": 1374,
      "Ġhand": 1375,
      "Ind": 1376,
      "ULL": 1377,
      "Im": 1378,
      "Ġmost": 1379,
      "Ġtry": 1380,
      "Ġnow": 1381,
      "rough": 1382,
      "ackage": 1383,
      "Ġhim": 1384,
      "._": 1385,
      "ify": 1386,
      "Ġbreak": 1387,
      "ren": 1388,
      "#define": 1389,
      "itt": 1390,
      "Ġap": 1391,
      "ĉc": 1392,
      "(n": 1393,
      "ĠYou": 1394,
      "-m": 1395,
      "Ġevery": 1396,
      "ustom": 1397,
      "lient": 1398,
      "ocument": 1399,
      "cription": 1400,
      "Error": 1401,
      "-b": 1402,
      "Ð¾": 1403,
      "][": 1404,
      "trans": 1405,
      "Ġpoint": 1406,
      "Ġstd": 1407,
      "Ġfil": 1408,
      "Time": 1409,
      "Ġmod": 1410,
      "Ġ->": 1411,
      "Ġerror": 1412,
      "ah": 1413,
      "Ġtext": 1414,
      "roller": 1415,
      "lose": 1416,
      "ql": 1417,
      "Ġpol": 1418,
      "></": 1419,
      "Ġshow": 1420,
      "User": 1421,
      "ased": 1422,
      "Ġfind": 1423,
      "Ð°": 1424,
      "ED": 1425,
      "span": 1426,
      "enu": 1427,
      "Ġcurrent": 1428,
      "Ġused": 1429,
      "cept": 1430,
      "clud": 1431,
      "Ġplay": 1432,
      "Ġlog": 1433,
      "ution": 1434,
      "fl": 1435,
      "Ġsee": 1436,
      "indows": 1437,
      "Ġhelp": 1438,
      "Ġthese": 1439,
      "Ġpass": 1440,
      "Ġdown": 1441,
      "Ġeven": 1442,
      "ason": 1443,
      "uild": 1444,
      "from": 1445,
      "(d": 1446,
      "Ġbl": 1447,
      "label": 1448,
      "else": 1449,
      "Ðµ": 1450,
      "Ġ(!": 1451,
      "ized": 1452,
      "(),": 1453,
      "Ġob": 1454,
      "Ġitem": 1455,
      "ump": 1456,
      "UR": 1457,
      "orn": 1458,
      "Ġdon": 1459,
      "Se": 1460,
      "man": 1461,
      "ample": 1462,
      "tn": 1463,
      "================": 1464,
      "He": 1465,
      "gram": 1466,
      "Ġdid": 1467,
      "wn": 1468,
      "_h": 1469,
      "iver": 1470,
      "Ġsm": 1471,
      "Ġthrough": 1472,
      "ĠAn": 1473,
      "che": 1474,
      "Ġinv": 1475,
      "ouse": 1476,
      "Ġes": 1477,
      "ĠNew": 1478,
      "export": 1479,
      "mary": 1480,
      "uto": 1481,
      "ler": 1482,
      "Ġlast": 1483,
      "Ġevent": 1484,
      "try": 1485,
      "ï¼": 1486,
      "ily": 1487,
      "igned": 1488,
      "ines": 1489,
      "ollow": 1490,
      "icense": 1491,
      "sole": 1492,
      "lear": 1493,
      "(int": 1494,
      "Ġagain": 1495,
      "Ġhigh": 1496,
      "html": 1497,
      "Index": 1498,
      "uthor": 1499,
      "Ġline": 1500,
      "Event": 1501,
      "_D": 1502,
      "Ġdoes": 1503,
      "itial": 1504,
      "Ġcr": 1505,
      "ars": 1506,
      "Ġtem": 1507,
      "cause": 1508,
      "face": 1509,
      "Ġ`": 1510,
      "_A": 1511,
      "Button": 1512,
      "ature": 1513,
      "ected": 1514,
      "ES": 1515,
      "ister": 1516,
      "ĉĊ": 1517,
      "Ġbefore": 1518,
      "ale": 1519,
      "other": 1520,
      "Ġbecause": 1521,
      "roid": 1522,
      "Ġed": 1523,
      "ik": 1524,
      "reg": 1525,
      "ĠDe": 1526,
      "Ġdist": 1527,
      "Ġstate": 1528,
      "Ġcons": 1529,
      "rint": 1530,
      "att": 1531,
      "Ġhere": 1532,
      "ined": 1533,
      "Ġfinal": 1534,
      "Ġ\"\"": 1535,
      "Key": 1536,
      "LO": 1537,
      "Ġdel": 1538,
      "pty": 1539,
      "thing": 1540,
      "ĠAnd": 1541,
      "Ġrun": 1542,
      "ĠX": 1543,
      "ym": 1544,
      ".app": 1545,
      "Ġvery": 1546,
      "ces": 1547,
      "_N": 1548,
      "ared": 1549,
      "ward": 1550,
      "list": 1551,
      "ited": 1552,
      "olog": 1553,
      "itch": 1554,
      "Box": 1555,
      "ife": 1556,
      "Ġac": 1557,
      "Ġmodel": 1558,
      "Ġmon": 1559,
      "Ġway": 1560,
      "lete": 1561,
      "Ġcall": 1562,
      "Ġatt": 1563,
      "Ġcal": 1564,
      "vert": 1565,
      "Ġdec": 1566,
      "lease": 1567,
      "oun": 1568,
      "fr": 1569,
      "formation": 1570,
      "etail": 1571,
      "Ġnum": 1572,
      "aj": 1573,
      "query": 1574,
      "Ġwell": 1575,
      "Ġobject": 1576,
      "ĠAs": 1577,
      "Ġyears": 1578,
      "Color": 1579,
      "IS": 1580,
      "Ġdefault": 1581,
      "Wh": 1582,
      "Ġins": 1583,
      "aint": 1584,
      "Ġjava": 1585,
      "Ġsim": 1586,
      "ĠAr": 1587,
      "mon": 1588,
      "til": 1589,
      "):": 1590,
      "Set": 1591,
      "atter": 1592,
      "Ġview": 1593,
      "Ġpres": 1594,
      "array": 1595,
      "We": 1596,
      "At": 1597,
      "Ġbel": 1598,
      "Ġmany": 1599,
      "Man": 1600,
      "ender": 1601,
      "Ġbeing": 1602,
      "Ġgood": 1603,
      "ĉĉĉĉĉĉ": 1604,
      "ational": 1605,
      "ware": 1606,
      ".log": 1607,
      "Ġusing": 1608,
      "_B": 1609,
      "Ġ:=": 1610,
      "_w": 1611,
      "ists": 1612,
      "lish": 1613,
      "Ġstud": 1614,
      "ĠAl": 1615,
      "Ġgu": 1616,
      "config": 1617,
      "uring": 1618,
      "time": 1619,
      "oken": 1620,
      "amespace": 1621,
      "Ġrequest": 1622,
      "Ġchild": 1623,
      "ĠÃ": 1624,
      "lob": 1625,
      "Ġparam": 1626,
      "Ġecho": 1627,
      "function": 1628,
      "********************************": 1629,
      "ps": 1630,
      "Element": 1631,
      "alk": 1632,
      "lication": 1633,
      "by": 1634,
      "Size": 1635,
      "rawing": 1636,
      "Ġperson": 1637,
      "ĠĠĠĠĠĠĠĠĠĠĠĠĠĠĠĠĠ": 1638,
      "\\n": 1639,
      "object": 1640,
      "ince": 1641,
      "En": 1642,
      "File": 1643,
      "uf": 1644,
      "ffect": 1645,
      "AC": 1646,
      "Ġstyle": 1647,
      "summary": 1648,
      "Ġque": 1649,
      "_r": 1650,
      "Ġ($": 1651,
      "Model": 1652,
      "ident": 1653,
      "Ġmethod": 1654,
      "IL": 1655,
      "ott": 1656,
      "less": 1657,
      "ING": 1658,
      "Ġ()": 1659,
      "Ġexpect": 1660,
      "ync": 1661,
      "package": 1662,
      "urs": 1663,
      "Ġprot": 1664,
      "./": 1665,
      "pre": 1666,
      "ma": 1667,
      "Ġsur": 1668,
      "Ġfound": 1669,
      "Info": 1670,
      "par": 1671,
      "imes": 1672,
      ".e": 1673,
      "ains": 1674,
      "Ġpost": 1675,
      "-d": 1676,
      "olean": 1677,
      "Ġsl": 1678,
      "PE": 1679,
      "Ġsuch": 1680,
      "select": 1681,
      "ainer": 1682,
      "Ġthink": 1683,
      "Ġdiffer": 1684,
      ".r": 1685,
      "FF": 1686,
      "ool": 1687,
      "plate": 1688,
      "qual": 1689,
      "ĠFor": 1690,
      "Ġmuch": 1691,
      "uc": 1692,
      "(new": 1693,
      "odule": 1694,
      "Ġsom": 1695,
      "Ġhttp": 1696,
      "ĠList": 1697,
      "Ġcount": 1698,
      "Ġinst": 1699,
      "char": 1700,
      "mit": 1701,
      ".id": 1702,
      "aking": 1703,
      "Ġgener": 1704,
      "px": 1705,
      "vice": 1706,
      "_data": 1707,
      "ĠNULL": 1708,
      "idd": 1709,
      "ãĢĤ": 1710,
      "Ġmed": 1711,
      "org": 1712,
      "ider": 1713,
      "ache": 1714,
      "work": 1715,
      "Ġcheck": 1716,
      "ween": 1717,
      "Ġ((": 1718,
      "the": 1719,
      "ants": 1720,
      "><": 1721,
      ".B": 1722,
      "-c": 1723,
      "Ġopen": 1724,
      "Ġest": 1725,
      "ĠĠĠĠĠĠĠĠĊ": 1726,
      "Ġnext": 1727,
      "IM": 1728,
      "ÑĤ": 1729,
      "OT": 1730,
      "Ã³": 1731,
      "Ġfollow": 1732,
      "content": 1733,
      "ĠĠĠĠĠĠĠĠĠĠĠĠ": 1734,
      "Ġinclud": 1735,
      "HE": 1736,
      "ĠRes": 1737,
      "Ġhref": 1738,
      "Ð¸": 1739,
      "Ġcar": 1740,
      "ypes": 1741,
      "image": 1742,
      "Un": 1743,
      "Ġbool": 1744,
      "AD": 1745,
      "Ġgame": 1746,
      ".Form": 1747,
      "rows": 1748,
      "*/": 1749,
      "velop": 1750,
      ".Drawing": 1751,
      "Ġpath": 1752,
      "ision": 1753,
      "Ġeach": 1754,
      "ĠPl": 1755,
      "_type": 1756,
      "Path": 1757,
      "nection": 1758,
      "Ġav": 1759,
      "').": 1760,
      "Ġsupport": 1761,
      "ENT": 1762,
      "rem": 1763,
      "\").": 1764,
      "Ġown": 1765,
      "Ġcor": 1766,
      "count": 1767,
      "miss": 1768,
      "ually": 1769,
      "Ġmem": 1770,
      "std": 1771,
      "ience": 1772,
      "search": 1773,
      "Form": 1774,
      "Ġsex": 1775,
      "ename": 1776,
      "Ġsign": 1777,
      "Ġet": 1778,
      "ĠĠĠĠĠĠĠĠĠĠ": 1779,
      "','": 1780,
      "ĠApp": 1781,
      "Ġthose": 1782,
      "off": 1783,
      "Ġerr": 1784,
      "Ġsystem": 1785,
      "Ġbest": 1786,
      "code": 1787,
      "Ġsame": 1788,
      "Ġdi": 1789,
      "uss": 1790,
      "Ġcreate": 1791,
      "ather": 1792,
      "Array": 1793,
      ".in": 1794,
      "fe": 1795,
      "Service": 1796,
      "UN": 1797,
      "ats": 1798,
      "ĠZ": 1799,
      "alth": 1800,
      "Ġmade": 1801,
      "true": 1802,
      "AB": 1803,
      "Ġmark": 1804,
      "rid": 1805,
      "ified": 1806,
      "yn": 1807,
      "press": 1808,
      "Ġgroup": 1809,
      "Ġfin": 1810,
      "ĠLicense": 1811,
      "Field": 1812,
      "eger": 1813,
      "Ġworld": 1814,
      "iness": 1815,
      "ty": 1816,
      "Ġprocess": 1817,
      "(b": 1818,
      "Ġcre": 1819,
      "arn": 1820,
      "ives": 1821,
      "Ġmain": 1822,
      "ideo": 1823,
      "_g": 1824,
      "AG": 1825,
      "valid": 1826,
      "img": 1827,
      "PI": 1828,
      "Ġcolor": 1829,
      "Ġreport": 1830,
      "Ġtake": 1831,
      "rib": 1832,
      "OM": 1833,
      "Ġday": 1834,
      "Request": 1835,
      "Ġsk": 1836,
      "bers": 1837,
      "ĉs": 1838,
      ".Add": 1839,
      "oot": 1840,
      "Image": 1841,
      "Ġcomple": 1842,
      "ollection": 1843,
      "Ġtop": 1844,
      "Ġfree": 1845,
      "AS": 1846,
      "De": 1847,
      "ĠOn": 1848,
      "IG": 1849,
      "eta": 1850,
      "Date": 1851,
      "Ġaction": 1852,
      "Over": 1853,
      "itor": 1854,
      "ĠĠĠĠĠĠĠĠĠĠĠĠĠĠĠĠĠĠĠĠĠĠĠĠĠĠĠĠĠĠĠĠĠĠĠ": 1855,
      "not": 1856,
      "Ġindex": 1857,
      "her": 1858,
      "icon": 1859,
      "On": 1860,
      "ivity": 1861,
      "mand": 1862,
      ".Windows": 1863,
      "OL": 1864,
      "Ġreal": 1865,
      "Ġmax": 1866,
      "land": 1867,
      "....": 1868,
      "raph": 1869,
      "Ġbuild": 1870,
      "leg": 1871,
      "assword": 1872,
      "âĢ¦": 1873,
      "ook": 1874,
      "uck": 1875,
      "Ġmessage": 1876,
      "test": 1877,
      "ivers": 1878,
      "Ġinput": 1879,
      "Ġart": 1880,
      "Ġbetween": 1881,
      "Get": 1882,
      "enter": 1883,
      "ground": 1884,
      "ene": 1885,
      "Ã¡": 1886,
      ".length": 1887,
      "Node": 1888,
      "(i": 1889,
      "Class": 1890,
      "for": 1891,
      "ĠâĢĶ": 1892,
      "ten": 1893,
      "oin": 1894,
      "Ġke": 1895,
      "ui": 1896,
      "ĠIN": 1897,
      "Ġtable": 1898,
      "sub": 1899,
      "ĠLe": 1900,
      "Ġhead": 1901,
      "Ġmust": 1902,
      "////////////////": 1903,
      ".util": 1904,
      "Context": 1905,
      "Ġorder": 1906,
      "Ġmov": 1907,
      "over": 1908,
      "Ġcontin": 1909,
      "Ġsay": 1910,
      "static": 1911,
      ".Text": 1912,
      "ĠclassName": 1913,
      "pany": 1914,
      "Ġter": 1915,
      "head": 1916,
      "rg": 1917,
      "Ġproduct": 1918,
      "This": 1919,
      ".âĢĿ": 1920,
      "ĠBut": 1921,
      "loy": 1922,
      "Ġdouble": 1923,
      "sg": 1924,
      "Ġplace": 1925,
      ".x": 1926,
      "message": 1927,
      "Ġinformation": 1928,
      "private": 1929,
      "Ġoper": 1930,
      "ced": 1931,
      "db": 1932,
      "\"></": 1933,
      "Param": 1934,
      "icle": 1935,
      "Ġweek": 1936,
      "Ġprop": 1937,
      "table": 1938,
      "idget": 1939,
      "place": 1940,
      "Prop": 1941,
      "ĠAll": 1942,
      "els": 1943,
      "box": 1944,
      ".R": 1945,
      "ĠTo": 1946,
      "iter": 1947,
      "Sh": 1948,
      "uration": 1949,
      "older": 1950,
      "_list": 1951,
      "come": 1952,
      "Ġsw": 1953,
      "ization": 1954,
      "ĉfor": 1955,
      "bl": 1956,
      "Ġprogram": 1957,
      "(e": 1958,
      "ape": 1959,
      "check": 1960,
      ".Forms": 1961,
      "Ġund": 1962,
      "ategory": 1963,
      "ags": 1964,
      "Ġresponse": 1965,
      "US": 1966,
      "request": 1967,
      "Ġstruct": 1968,
      "escription": 1969,
      "Ġcode": 1970,
      "_H": 1971,
      "uffer": 1972,
      "Ġwithout": 1973,
      "lobal": 1974,
      "Manager": 1975,
      "ilter": 1976,
      "PO": 1977,
      "ĉthis": 1978,
      "option": 1979,
      "Ġsol": 1980,
      "Ġ===": 1981,
      "akes": 1982,
      "Controller": 1983,
      "Message": 1984,
      "Ġref": 1985,
      "ever": 1986,
      "ĠSo": 1987,
      "aining": 1988,
      ".append": 1989,
      "Ġstill": 1990,
      "Ġprovid": 1991,
      "Ġassert": 1992,
      "med": 1993,
      "Ġcap": 1994,
      "usiness": 1995,
      "Ġrep": 1996,
      "tings": 1997,
      "ved": 1998,
      ".N": 1999,
      "api": 2000,
      "OD": 2001,
      "Ġfield": 2002,
      "iven": 2003,
      "oto": 2004,
      "âĢľ": 2005,
      "col": 2006,
      "(x": 2007,
      "ght": 2008,
      "Result": 2009,
      "Code": 2010,
      ".is": 2011,
      "link": 2012,
      "Ġcour": 2013,
      "An": 2014,
      "Ġteam": 2015,
      "ĉint": 2016,
      "ift": 2017,
      "Ġsecond": 2018,
      "Ġgoing": 2019,
      "Ġrange": 2020,
      "_E": 2021,
      "ness": 2022,
      "Ġfam": 2023,
      "Ġnil": 2024,
      "ĠCont": 2025,
      "ailable": 2026,
      "utes": 2027,
      "atab": 2028,
      "Ġfact": 2029,
      "Ġvis": 2030,
      "(&": 2031,
      "ĠAN": 2032,
      "Al": 2033,
      "title": 2034,
      "Ġandroid": 2035,
      "CE": 2036,
      "\\\"": 2037,
      "irt": 2038,
      "Ġwrit": 2039,
      "Ð½": 2040,
      "ĉm": 2041,
      "ftware": 2042,
      "ond": 2043,
      "Ġret": 2044,
      "osition": 2045,
      "Ġhome": 2046,
      "Ġleft": 2047,
      "args": 2048,
      "meric": 2049,
      "Ġdirect": 2050,
      "oci": 2051,
      "Pl": 2052,
      "As": 2053,
      "ret": 2054,
      "ado": 2055,
      "Of": 2056,
      "chn": 2057,
      "ĠGet": 2058,
      "ee": 2059,
      "ross": 2060,
      "();": 2061,
      "____": 2062,
      ".ph": 2063,
      "It": 2064,
      "oute": 2065,
      "Ġexper": 2066,
      "chool": 2067,
      "www": 2068,
      "},": 2069,
      "Ġallow": 2070,
      "ĠÂ": 2071,
      "())": 2072,
      "size": 2073,
      "ism": 2074,
      "ai": 2075,
      "tract": 2076,
      "ane": 2077,
      "context": 2078,
      "Ġbeg": 2079,
      "CH": 2080,
      "Ġpage": 2081,
      "hip": 2082,
      "no": 2083,
      "core": 2084,
      "sp": 2085,
      "Ġdifferent": 2086,
      "iable": 2087,
      "ĠMe": 2088,
      "_IN": 2089,
      "button": 2090,
      "ĠIs": 2091,
      "ervices": 2092,
      "Ġca": 2093,
      "Ġaround": 2094,
      "App": 2095,
      "ration": 2096,
      "Ġrece": 2097,
      "Ġreally": 2098,
      "Ġimage": 2099,
      "Ġtarget": 2100,
      "Ġdep": 2101,
      "opyright": 2102,
      "tra": 2103,
      "ingle": 2104,
      "ital": 2105,
      "Layout": 2106,
      "Ġboth": 2107,
      "Override": 2108,
      "arm": 2109,
      "=>": 2110,
      "aterial": 2111,
      "iled": 2112,
      "Ġput": 2113,
      "Qu": 2114,
      "ÑĢ": 2115,
      "ung": 2116,
      "map": 2117,
      "ĉĉĉĉĉĉĉĉ": 2118,
      "Ġlevel": 2119,
      "Component": 2120,
      "book": 2121,
      "creen": 2122,
      "_RE": 2123,
      "Ġconfig": 2124,
      "ãģ": 2125,
      "Or": 2126,
      ".data": 2127,
      "Ġdocument": 2128,
      "\",\"": 2129,
      "tribute": 2130,
      "ux": 2131,
      "Log": 2132,
      "ference": 2133,
      "post": 2134,
      "_e": 2135,
      "Ġlocal": 2136,
      "andom": 2137,
      "assert": 2138,
      "Val": 2139,
      "lected": 2140,
      "ina": 2141,
      "atabase": 2142,
      "Add": 2143,
      "Ġcontent": 2144,
      ".print": 2145,
      "signed": 2146,
      "ric": 2147,
      "Ġfa": 2148,
      "-f": 2149,
      "ived": 2150,
      "Ġquest": 2151,
      ".ex": 2152,
      "Ġfloat": 2153,
      "Ġdevelop": 2154,
      "Map": 2155,
      "ading": 2156,
      "Ġposs": 2157,
      "UE": 2158,
      "namespace": 2159,
      "_O": 2160,
      "ĉb": 2161,
      ".Get": 2162,
      ">(": 2163,
      "json": 2164,
      "etails": 2165,
      "Ġtoo": 2166,
      "Ġextends": 2167,
      "ĠNone": 2168,
      "Ġfore": 2169,
      "(String": 2170,
      "format": 2171,
      "Ġgreat": 2172,
      "inter": 2173,
      "cale": 2174,
      "Ñģ": 2175,
      "ron": 2176,
      "iving": 2177,
      "Ent": 2178,
      "ency": 2179,
      "xt": 2180,
      "oy": 2181,
      "Ġmonth": 2182,
      "Ġhapp": 2183,
      "Ġsuper": 2184,
      "bar": 2185,
      "default": 2186,
      "_de": 2187,
      "ords": 2188,
      "ln": 2189,
      "ĠInd": 2190,
      "ases": 2191,
      "Ġtitle": 2192,
      "Ġcontext": 2193,
      "oh": 2194,
      "-p": 2195,
      "Em": 2196,
      "Ġmet": 2197,
      "Test": 2198,
      "Ġlife": 2199,
      "_v": 2200,
      "ĠUS": 2201,
      "UI": 2202,
      "ocation": 2203,
      "md": 2204,
      "Ġ]": 2205,
      "sw": 2206,
      "Ġincre": 2207,
      "script": 2208,
      "ential": 2209,
      "ways": 2210,
      ".de": 2211,
      "Ġsrc": 2212,
      "Ġcatch": 2213,
      "ĠAmeric": 2214,
      "ĠĠĠĠĠĠĠĠĠĠĠĠĠĠ": 2215,
      "Ġpay": 2216,
      "plit": 2217,
      "âĢĶ": 2218,
      "Ġcoun": 2219,
      "obj": 2220,
      ".php": 2221,
      "Ġchange": 2222,
      "ething": 2223,
      "'re": 2224,
      "aster": 2225,
      "los": 2226,
      "lation": 2227,
      "ĠĠĊ": 2228,
      "Le": 2229,
      "Ã¤": 2230,
      "({": 2231,
      "ready": 2232,
      "ĠNo": 2233,
      "Ġposition": 2234,
      "Ġold": 2235,
      "Ġbook": 2236,
      "abled": 2237,
      "bug": 2238,
      "Hand": 2239,
      "isplay": 2240,
      "aving": 2241,
      "Ġgover": 2242,
      "Ġversion": 2243,
      "System": 2244,
      "nect": 2245,
      "response": 2246,
      "Style": 2247,
      "Up": 2248,
      "angu": 2249,
      "Ġthree": 2250,
      "init": 2251,
      "ero": 2252,
      "Ġlaw": 2253,
      "endif": 2254,
      "Ġbase": 2255,
      "email": 2256,
      "(l": 2257,
      "_V": 2258,
      "Ġconf": 2259,
      "ATE": 2260,
      "Ġduring": 2261,
      "tes": 2262,
      "Ġconsole": 2263,
      "ĠPr": 2264,
      "Ġspe": 2265,
      "ves": 2266,
      "path": 2267,
      "ialog": 2268,
      "dition": 2269,
      "_to": 2270,
      "ards": 2271,
      "Ġagainst": 2272,
      "etwork": 2273,
      "ĠPh": 2274,
      "_L": 2275,
      "cur": 2276,
      "imit": 2277,
      "With": 2278,
      "Ġpower": 2279,
      "ium": 2280,
      "Ġwom": 2281,
      "left": 2282,
      "ources": 2283,
      "atri": 2284,
      "ĠIm": 2285,
      "ĠMan": 2286,
      "orth": 2287,
      "${": 2288,
      "quals": 2289,
      "ese": 2290,
      "_size": 2291,
      "Ġiss": 2292,
      "otal": 2293,
      "-g": 2294,
      "ique": 2295,
      "rame": 2296,
      "Ġwidth": 2297,
      "erg": 2298,
      ")(": 2299,
      "ittle": 2300,
      "TR": 2301,
      "ĠThey": 2302,
      "ences": 2303,
      "rl": 2304,
      "ons": 2305,
      "Ġlabel": 2306,
      ".y": 2307,
      "-t": 2308,
      "update": 2309,
      "anel": 2310,
      "sc": 2311,
      ".to": 2312,
      "Ġproject": 2313,
      "Ã¼": 2314,
      "Ġelement": 2315,
      "Ġsuccess": 2316,
      "ĉĉĊ": 2317,
      ".sh": 2318,
      "ram": 2319,
      "ched": 2320,
      "Ġdate": 2321,
      "Ġtot": 2322,
      "_ST": 2323,
      "All": 2324,
      "ification": 2325,
      "ĉvar": 2326,
      "Ġtri": 2327,
      "chem": 2328,
      "my": 2329,
      "Ġbig": 2330,
      "ĠAd": 2331,
      "ĠAt": 2332,
      "ots": 2333,
      "num": 2334,
      "Act": 2335,
      "Ġmap": 2336,
      "era": 2337,
      "cope": 2338,
      ".$": 2339,
      ",âĢĿ": 2340,
      "Ġpop": 2341,
      "Ġfew": 2342,
      "Ġlen": 2343,
      "uid": 2344,
      "eters": 2345,
      "ules": 2346,
      "ÃŃ": 2347,
      "source": 2348,
      "https": 2349,
      "Ġdem": 2350,
      "Ġear": 2351,
      "################": 2352,
      "Ġmatch": 2353,
      "ories": 2354,
      "aces": 2355,
      "ĠCl": 2356,
      "Ġnode": 2357,
      "irc": 2358,
      "local": 2359,
      "unity": 2360,
      "Ġanother": 2361,
      "<<": 2362,
      "ogle": 2363,
      "Ġsit": 2364,
      "ework": 2365,
      "TE": 2366,
      ".I": 2367,
      "NS": 2368,
      "ology": 2369,
      "ought": 2370,
      ".Cont": 2371,
      ">>": 2372,
      "Ġcare": 2373,
      "state": 2374,
      "ĉprivate": 2375,
      "Ġeffect": 2376,
      "++)": 2377,
      "_file": 2378,
      "ending": 2379,
      "Line": 2380,
      "For": 2381,
      "ior": 2382,
      "ĠSc": 2383,
      "Ġfun": 2384,
      ".Size": 2385,
      "ĉelse": 2386,
      "])": 2387,
      "start": 2388,
      "vious": 2389,
      "Ġ},": 2390,
      "ours": 2391,
      "Ġleg": 2392,
      "Ġservice": 2393,
      "Ġsince": 2394,
      "iron": 2395,
      "Label": 2396,
      "Ġnon": 2397,
      "Ġlos": 2398,
      "iction": 2399,
      "Ġfull": 2400,
      "acter": 2401,
      "board": 2402,
      "gress": 2403,
      "Ġturn": 2404,
      "ither": 2405,
      ".size": 2406,
      "Ġbody": 2407,
      "resh": 2408,
      "eturn": 2409,
      "(_": 2410,
      "yles": 2411,
      "ormal": 2412,
      "pi": 2413,
      "Ġsomething": 2414,
      "!--": 2415,
      "uint": 2416,
      "Ġprodu": 2417,
      "Ġstand": 2418,
      "Ġproble": 2419,
      "Ġavailable": 2420,
      "mt": 2421,
      "ĠBl": 2422,
      "Ġ...": 2423,
      "Ġblock": 2424,
      "Input": 2425,
      "Ġkeep": 2426,
      "Count": 2427,
      "open": 2428,
      "Ġ['": 2429,
      "Ġthrow": 2430,
      "uilder": 2431,
      "Action": 2432,
      "Ġthings": 2433,
      "True": 2434,
      "Ġurl": 2435,
      "ĠBo": 2436,
      "printf": 2437,
      "Ġred": 2438,
      "js": 2439,
      ".create": 2440,
      "ĠOr": 2441,
      "Status": 2442,
      "Instance": 2443,
      "Ġcontrol": 2444,
      "Ġcome": 2445,
      "Ġcustom": 2446,
      "location": 2447,
      "model": 2448,
      "ĠčĊ": 2449,
      "Ġsource": 2450,
      "Ġeas": 2451,
      ".out": 2452,
      "oney": 2453,
      "Ġawait": 2454,
      "Ġpartic": 2455,
      "AP": 2456,
      "ublish": 2457,
      "odes": 2458,
      "_pro": 2459,
      "ply": 2460,
      "riter": 2461,
      "Ġprov": 2462,
      "Ġmill": 2463,
      "HT": 2464,
      "Ġchang": 2465,
      "Ġask": 2466,
      "ĠĠĠĠĠĠĠĠĠĠĠĠĠĠĠĠĠĠĠĠĠ": 2467,
      "Ġoutput": 2468,
      "Ġemail": 2469,
      ".push": 2470,
      "ination": 2471,
      "atrix": 2472,
      "Table": 2473,
      "uccess": 2474,
      "ĠĠĠĠĠĠĠĠĠĠĠĠĠĠĠĠĠĠĠĠĠĠĠĠĠĠĠĠĠĠĠĠĠĠĠĠĠĠĠ": 2475,
      "Ġdisc": 2476,
      "([": 2477,
      "Ġbusiness": 2478,
      "height": 2479,
      ".html": 2480,
      "ta": 2481,
      "field": 2482,
      "Ġrequired": 2483,
      "_R": 2484,
      "Ġgovern": 2485,
      "lex": 2486,
      ".,": 2487,
      "ĠSet": 2488,
      "urch": 2489,
      "///": 2490,
      "ts": 2491,
      "af": 2492,
      "Ġmight": 2493,
      "istory": 2494,
      "Str": 2495,
      "Ġnever": 2496,
      "Response": 2497,
      "arse": 2498,
      "ada": 2499,
      "ĠHow": 2500,
      "Ġ*)": 2501,
      "Ġ;": 2502,
      "Ġhard": 2503,
      "Ad": 2504,
      "Ġintern": 2505,
      "used": 2506,
      "(data": 2507,
      "mod": 2508,
      "annel": 2509,
      "Ġnp": 2510,
      "ugg": 2511,
      "Ġcalled": 2512,
      "body": 2513,
      "Ġcho": 2514,
      "(r": 2515,
      "_set": 2516,
      "ird": 2517,
      "Ġ>=": 2518,
      "Ġoptions": 2519,
      "ĠGener": 2520,
      "Ġheight": 2521,
      "Point": 2522,
      "You": 2523,
      "ety": 2524,
      "Click": 2525,
      "Ġsmall": 2526,
      "Ġide": 2527,
      "Ġaccess": 2528,
      "anguage": 2529,
      "Ġprotected": 2530,
      "Ġjob": 2531,
      "ĠThere": 2532,
      "Def": 2533,
      "Ġaddress": 2534,
      "Ġuint": 2535,
      "Not": 2536,
      "oo": 2537,
      "aps": 2538,
      "<div": 2539,
      "ained": 2540,
      "atur": 2541,
      "Ġsum": 2542,
      "-w": 2543,
      "ĠDate": 2544,
      "Ġlittle": 2545,
      "Ġfri": 2546,
      "YPE": 2547,
      "Ġport": 2548,
      "eh": 2549,
      "pring": 2550,
      "_path": 2551,
      "Ġstatus": 2552,
      "aim": 2553,
      "bool": 2554,
      "Ġappe": 2555,
      "Ġos": 2556,
      ".name": 2557,
      "ension": 2558,
      "_G": 2559,
      "Ġupdate": 2560,
      "Config": 2561,
      "aff": 2562,
      "ERR": 2563,
      "Ġ<=": 2564,
      "ately": 2565,
      "#if": 2566,
      "uction": 2567,
      "ĠTe": 2568,
      "Ġlink": 2569,
      "ĠUser": 2570,
      ".find": 2571,
      ".org": 2572,
      "me": 2573,
      "Ġgiven": 2574,
      "Out": 2575,
      "#endif": 2576,
      "Ġbetter": 2577,
      "Page": 2578,
      "Ġfeel": 2579,
      "enn": 2580,
      "ML": 2581,
      "Ġalready": 2582,
      "Ġincluding": 2583,
      "oogle": 2584,
      "ru": 2585,
      "ically": 2586,
      "prop": 2587,
      "lean": 2588,
      "outer": 2589,
      "Ġalways": 2590,
      "ording": 2591,
      "If": 2592,
      "orage": 2593,
      "Ġparent": 2594,
      "vis": 2595,
      "ĉĉĉĉĉĉĉ": 2596,
      "Ġgot": 2597,
      "stand": 2598,
      "Ġless": 2599,
      "/s": 2600,
      "ĠAss": 2601,
      "apt": 2602,
      "ired": 2603,
      "ĠAdd": 2604,
      "Ġaccount": 2605,
      "ploy": 2606,
      "Ġder": 2607,
      "resent": 2608,
      "Ġlot": 2609,
      "Ġvalid": 2610,
      "ĉd": 2611,
      "Ġbit": 2612,
      "ponents": 2613,
      "Ġfollowing": 2614,
      "_ex": 2615,
      "SON": 2616,
      "Ġsure": 2617,
      "ocial": 2618,
      "Ġprom": 2619,
      "erties": 2620,
      "header": 2621,
      ".pro": 2622,
      "Ġboolean": 2623,
      "Ġsearch": 2624,
      "ken": 2625,
      "Ġorig": 2626,
      "Ġer": 2627,
      "Ed": 2628,
      "EM": 2629,
      "aut": 2630,
      "ling": 2631,
      "ality": 2632,
      "ById": 2633,
      "bed": 2634,
      "ĉcase": 2635,
      "ether": 2636,
      "posit": 2637,
      "Ġinvest": 2638,
      "ĠOR": 2639,
      "Ġsays": 2640,
      "mission": 2641,
      "AME": 2642,
      "Ġtemp": 2643,
      "oad": 2644,
      "Ġrest": 2645,
      "info": 2646,
      "Ġinterest": 2647,
      "Arg": 2648,
      "Ġperform": 2649,
      "pons": 2650,
      "ĠView": 2651,
      "Ġver": 2652,
      "lib": 2653,
      "(const": 2654,
      "Util": 2655,
      "Listener": 2656,
      "arge": 2657,
      "Ġmult": 2658,
      "Ġdie": 2659,
      "Ġsite": 2660,
      "../../": 2661,
      "EL": 2662,
      "Ġvalues": 2663,
      "pen": 2664,
      "No": 2665,
      "icro": 2666,
      "Ġbeh": 2667,
      "Ġ'./": 2668,
      "acy": 2669,
      "rec": 2670,
      "()->": 2671,
      "ĉĠĠĠ": 2672,
      "\"))": 2673,
      "Content": 2674,
      "_W": 2675,
      "plement": 2676,
      "Ġwon": 2677,
      "Ġvideo": 2678,
      "adi": 2679,
      "point": 2680,
      "%%": 2681,
      "Ġgl": 2682,
      "erved": 2683,
      "viron": 2684,
      "IF": 2685,
      "uted": 2686,
      "ãĥ": 2687,
      "'m": 2688,
      "Ġcert": 2689,
      "Ġprof": 2690,
      "Ġcell": 2691,
      "ari": 2692,
      "Ġplayer": 2693,
      "ais": 2694,
      "Ġcost": 2695,
      "Ġhum": 2696,
      "(R": 2697,
      "Ġoffic": 2698,
      "ks": 2699,
      ".text": 2700,
      "atures": 2701,
      "Ġtotal": 2702,
      "ope": 2703,
      "Ġstat": 2704,
      "UM": 2705,
      "Ġload": 2706,
      "ights": 2707,
      "Ġclear": 2708,
      "uro": 2709,
      "Ġtechn": 2710,
      "upport": 2711,
      "IR": 2712,
      "Ġrow": 2713,
      "Ġseem": 2714,
      "Ġq": 2715,
      "Ġshort": 2716,
      "ĠNot": 2717,
      "ipp": 2718,
      "Group": 2719,
      "section": 2720,
      "max": 2721,
      "irl": 2722,
      "Ġoverride": 2723,
      "Ġcompany": 2724,
      "Ġdone": 2725,
      "Ġgre": 2726,
      ".Re": 2727,
      "Ġbelie": 2728,
      "rist": 2729,
      "Ġhealth": 2730,
      "ANT": 2731,
      "ĠBe": 2732,
      ".value": 2733,
      "ĠGr": 2734,
      "ottom": 2735,
      "Ġargs": 2736,
      "PT": 2737,
      "status": 2738,
      "func": 2739,
      "uments": 2740,
      "-h": 2741,
      "Number": 2742,
      "ĠLog": 2743,
      "erver": 2744,
      "ament": 2745,
      "Ġobj": 2746,
      "inc": 2747,
      "Ġchildren": 2748,
      "icy": 2749,
      "IZ": 2750,
      "ands": 2751,
      "ably": 2752,
      "Ġdistrib": 2753,
      "Ġcur": 2754,
      "erial": 2755,
      "Ġdays": 2756,
      "reated": 2757,
      "rect": 2758,
      "-l": 2759,
      "irm": 2760,
      "idden": 2761,
      "omb": 2762,
      "Ġinitial": 2763,
      ".js": 2764,
      "Ġâ": 2765,
      "Query": 2766,
      "Ġonline": 2767,
      "imal": 2768,
      ".con": 2769,
      "au": 2770,
      "Url": 2771,
      "control": 2772,
      "irection": 2773,
      "Ġinstance": 2774,
      "ORT": 2775,
      "ĠFr": 2776,
      "where": 2777,
      "Ġjavax": 2778,
      "Ġorgan": 2779,
      "apter": 2780,
      "Ġreason": 2781,
      "options": 2782,
      "ĠMar": 2783,
      "(a": 2784,
      "Ġwithin": 2785,
      "ODE": 2786,
      "_DE": 2787,
      "admin": 2788,
      "ended": 2789,
      "Ġdesign": 2790,
      "ĠData": 2791,
      "une": 2792,
      "ĠFile": 2793,
      "root": 2794,
      "Ġcent": 2795,
      "Ġarr": 2796,
      "_add": 2797,
      "len": 2798,
      "page": 2799,
      ",'": 2800,
      "_str": 2801,
      "Ġbro": 2802,
      "ability": 2803,
      "outh": 2804,
      "/c": 2805,
      "pose": 2806,
      "irtual": 2807,
      "earch": 2808,
      "_url": 2809,
      "argin": 2810,
      "Http": 2811,
      "Ġschool": 2812,
      "ava": 2813,
      "Ġconsider": 2814,
      ".label": 2815,
      "ĠArray": 2816,
      "web": 2817,
      "opt": 2818,
      ".println": 2819,
      "ulation": 2820,
      "Ġfunc": 2821,
      "PL": 2822,
      "Ġ\"\\": 2823,
      "ĠText": 2824,
      "actory": 2825,
      "(function": 2826,
      "null": 2827,
      "Ġeng": 2828,
      "down": 2829,
      "Ġinclude": 2830,
      "ĠEn": 2831,
      "ĠDr": 2832,
      "Ġdb": 2833,
      "!!": 2834,
      "side": 2835,
      "Ġinit": 2836,
      "quired": 2837,
      "ĠShe": 2838,
      "Column": 2839,
      "react": 2840,
      "Ġann": 2841,
      "Ġstop": 2842,
      "Ġlater": 2843,
      "ĠThat": 2844,
      "ention": 2845,
      "df": 2846,
      "UG": 2847,
      "ILE": 2848,
      "Ġclient": 2849,
      "raft": 2850,
      "ffer": 2851,
      "POST": 2852,
      "elper": 2853,
      "Ġlove": 2854,
      "quote": 2855,
      "oud": 2856,
      "Ġjson": 2857,
      "Ġable": 2858,
      "Ġmen": 2859,
      "AX": 2860,
      "ĠCopyright": 2861,
      "Ã¶": 2862,
      "avig": 2863,
      "req": 2864,
      "Client": 2865,
      ".Com": 2866,
      "erc": 2867,
      "ilt": 2868,
      "pecial": 2869,
      "_com": 2870,
      "room": 2871,
      ".Name": 2872,
      "Ġgive": 2873,
      "amb": 2874,
      "ike": 2875,
      "Ġcondition": 2876,
      "client": 2877,
      "ators": 2878,
      ":\"": 2879,
      "Ġcopy": 2880,
      "uture": 2881,
      "iversity": 2882,
      "ernal": 2883,
      "{{": 2884,
      "ĠCan": 2885,
      "ounc": 2886,
      "do": 2887,
      "Ġocc": 2888,
      "Ġappro": 2889,
      "thers": 2890,
      "ze": 2891,
      "Ġeither": 2892,
      "ĠFl": 2893,
      "Ġimportant": 2894,
      "Ġlead": 2895,
      "attr": 2896,
      "ART": 2897,
      "Equal": 2898,
      "Ġda": 2899,
      "etch": 2900,
      "entity": 2901,
      "Ġfamily": 2902,
      "adding": 2903,
      "Ġoption": 2904,
      "Ġexist": 2905,
      "ica": 2906,
      "ĠObject": 2907,
      "'ve": 2908,
      "vers": 2909,
      "itional": 2910,
      "output": 2911,
      "ĠTrue": 2912,
      "ĠOF": 2913,
      "_time": 2914,
      "Ġoffer": 2915,
      "HER": 2916,
      "egin": 2917,
      "\"\"": 2918,
      "Ġwater": 2919,
      "Ġche": 2920,
      "ĠMy": 2921,
      "ored": 2922,
      "Ġstep": 2923,
      "ances": 2924,
      "CK": 2925,
      "AY": 2926,
      "à¸": 2927,
      "struction": 2928,
      "(C": 2929,
      "ouch": 2930,
      "Stream": 2931,
      "active": 2932,
      "ama": 2933,
      "Entity": 2934,
      "product": 2935,
      "Ġgovernment": 2936,
      "ĠID": 2937,
      "ajor": 2938,
      "And": 2939,
      "Ġdisplay": 2940,
      "Ð»": 2941,
      "Ġtimes": 2942,
      "Ġfour": 2943,
      "Ġfar": 2944,
      "Ġpresent": 2945,
      "ĠNS": 2946,
      "uest": 2947,
      "Ġbas": 2948,
      "echo": 2949,
      "child": 2950,
      "ifier": 2951,
      "Handler": 2952,
      "Ġlib": 2953,
      "Property": 2954,
      "translation": 2955,
      "Ġroom": 2956,
      "Ġonce": 2957,
      "Ġ[]": 2958,
      "center": 2959,
      "================================": 2960,
      "Ġresults": 2961,
      "Ġcontinue": 2962,
      "Ġtalk": 2963,
      "_get": 2964,
      "Ġgrow": 2965,
      ".sw": 2966,
      "eb": 2967,
      "ĠPublic": 2968,
      "OP": 2969,
      "ecute": 2970,
      "ols": 2971,
      "Ġ**": 2972,
      "Ġmass": 2973,
      "ured": 2974,
      ".class": 2975,
      "omic": 2976,
      "Ġmean": 2977,
      "ips": 2978,
      "Ġaut": 2979,
      "Ġuntil": 2980,
      "Ġmarket": 2981,
      "Ġarea": 2982,
      "uit": 2983,
      "Ġlength": 2984,
      "ĠWith": 2985,
      "structor": 2986,
      "event": 2987,
      "\"><": 2988,
      "ĠSp": 2989,
      "IV": 2990,
      "Ġmus": 2991,
      "iff": 2992,
      "Ġkind": 2993,
      "author": 2994,
      "ounds": 2995,
      "mb": 2996,
      "_key": 2997,
      "width": 2998,
      "pository": 2999,
      "Ġlight": 3000,
      "uk": 3001,
      "Row": 3002,
      "ohn": 3003,
      "alf": 3004,
      "vironment": 3005,
      "apper": 3006,
      "ollections": 3007,
      "Ġside": 3008,
      "_info": 3009,
      "Ġexample": 3010,
      "imary": 3011,
      "Ġwr": 3012,
      "Ġcamp": 3013,
      "cribe": 3014,
      "\"/": 3015,
      "Ġmiss": 3016,
      "way": 3017,
      "Ġbased": 3018,
      "Ġplan": 3019,
      "Vis": 3020,
      "omain": 3021,
      "unk": 3022,
      "Ġaway": 3023,
      "UP": 3024,
      "<T": 3025,
      "OS": 3026,
      "iod": 3027,
      "ĠMon": 3028,
      "âĢĻre": 3029,
      "Ġlik": 3030,
      "Ã§": 3031,
      "ively": 3032,
      ".v": 3033,
      "imer": 3034,
      "izer": 3035,
      "Sub": 3036,
      "Ġbutton": 3037,
      "ĠUp": 3038,
      "Ġexperience": 3039,
      "CL": 3040,
      "Ġrender": 3041,
      "_value": 3042,
      "Ġnear": 3043,
      "URL": 3044,
      "alt": 3045,
      "Ġcountry": 3046,
      "ibility": 3047,
      "ead": 3048,
      "Ġauthor": 3049,
      "Ġspecific": 3050,
      "base": 3051,
      "(name": 3052,
      "ones": 3053,
      "ĠDo": 3054,
      "Ġalong": 3055,
      "year": 3056,
      "Ġexpress": 3057,
      ".'": 3058,
      "env": 3059,
      "Ġbegin": 3060,
      "Ġsoftware": 3061,
      "Ġimp": 3062,
      "Ġwin": 3063,
      "Ã³n": 3064,
      "Ġthing": 3065,
      "Trans": 3066,
      "ĠTHE": 3067,
      "Ġ<?": 3068,
      "Ġwhy": 3069,
      "Ġdoesn": 3070,
      "ij": 3071,
      "ging": 3072,
      "ĉg": 3073,
      "Ġsingle": 3074,
      "offset": 3075,
      "arning": 3076,
      "ograph": 3077,
      "ley": 3078,
      "_count": 3079,
      "Ġanal": 3080,
      "create": 3081,
      "/m": 3082,
      "ĠReg": 3083,
      "unch": 3084,
      "=$": 3085,
      "isk": 3086,
      "Ġrights": 3087,
      "(M": 3088,
      "aper": 3089,
      ".model": 3090,
      "Ġpo": 3091,
      "empty": 3092,
      "artment": 3093,
      "Ġant": 3094,
      "ĠWhen": 3095,
      "Ġwomen": 3096,
      "ĠEd": 3097,
      "Ġseason": 3098,
      "Ġdest": 3099,
      "Ã£": 3100,
      "(h": 3101,
      "Ġpossible": 3102,
      "Ġsever": 3103,
      "Ġbtn": 3104,
      "Ġdidn": 3105,
      "Ġsent": 3106,
      "Ġenc": 3107,
      "Ġcommand": 3108,
      "_x": 3109,
      "Ġrecent": 3110,
      "olution": 3111,
      "vector": 3112,
      "ĠBy": 3113,
      "ĠMay": 3114,
      "ĠAct": 3115,
      "»¿": 3116,
      "Ġmoney": 3117,
      "INT": 3118,
      "bsite": 3119,
      "ĉp": 3120,
      "ï»¿": 3121,
      "sl": 3122,
      "attern": 3123,
      "ĠClass": 3124,
      "Ġtold": 3125,
      "udio": 3126,
      "current": 3127,
      "Ġequ": 3128,
      "Ġauto": 3129,
      "ĠState": 3130,
      "da": 3131,
      "msg": 3132,
      "Ġworking": 3133,
      "Ġquery": 3134,
      "ĠBr": 3135,
      "Ġwindow": 3136,
      "auth": 3137,
      "only": 3138,
      "ĉt": 3139,
      "Ġleast": 3140,
      "agn": 3141,
      "Ġexpl": 3142,
      "itter": 3143,
      "aring": 3144,
      "Ġcolumn": 3145,
      "ĠGeneral": 3146,
      "\":\"": 3147,
      "eral": 3148,
      "rior": 3149,
      "Ġrecord": 3150,
      "IB": 3151,
      "EX": 3152,
      "Ġdat": 3153,
      "Ġmaking": 3154,
      "ued": 3155,
      "ĠCar": 3156,
      "emp": 3157,
      "\".": 3158,
      "ĠMed": 3159,
      "Ġclose": 3160,
      "Ġpercent": 3161,
      "Ġpast": 3162,
      "(g": 3163,
      ":(": 3164,
      "Ġwrite": 3165,
      "Ġmove": 3166,
      "Ġpat": 3167,
      "Control": 3168,
      ".To": 3169,
      "Ġvi": 3170,
      "inate": 3171,
      "'ll": 3172,
      "aged": 3173,
      "Null": 3174,
      "Ġspecial": 3175,
      "IZE": 3176,
      "Ġcity": 3177,
      "ĠEng": 3178,
      "ixed": 3179,
      "inary": 3180,
      "py": 3181,
      "Ġeff": 3182,
      "ario": 3183,
      "Ġtell": 3184,
      "avor": 3185,
      "Ġselect": 3186,
      "level": 3187,
      "imum": 3188,
      "oper": 3189,
      "Builder": 3190,
      "IP": 3191,
      "esc": 3192,
      "Ġfont": 3193,
      "ĠAm": 3194,
      "ished": 3195,
      "ills": 3196,
      "Inter": 3197,
      "OW": 3198,
      "Ġcourse": 3199,
      "Ġlate": 3200,
      "iddle": 3201,
      "Ġamount": 3202,
      "Ġasync": 3203,
      "ino": 3204,
      "cul": 3205,
      "Ġì": 3206,
      "andle": 3207,
      "_user": 3208,
      "Ġben": 3209,
      "ĠCal": 3210,
      "Ġ$_": 3211,
      "ĠRep": 3212,
      "Ġenough": 3213,
      "Token": 3214,
      ".user": 3215,
      "(j": 3216,
      "Sc": 3217,
      "Width": 3218,
      "now": 3219,
      "atform": 3220,
      "Ġlooking": 3221,
      "Ġhold": 3222,
      "Module": 3223,
      "ITY": 3224,
      "vo": 3225,
      "ison": 3226,
      ".Data": 3227,
      "yc": 3228,
      "Ġpot": 3229,
      "ĠTrump": 3230,
      "idual": 3231,
      "ides": 3232,
      "rt": 3233,
      "Ġproperty": 3234,
      "ĠĠĠĠĠĠĠĠĠĠĠĠĠĠĠĠĠĠĠĠĠĠĠĠĠĠĠĠĠĠĠĠĠĠĠĠĠĠĠĠĠĠĠ": 3235,
      "amework": 3236,
      "go": 3237,
      "Ġlow": 3238,
      "Ġpara": 3239,
      "Ġprice": 3240,
      "ury": 3241,
      "Ġtoday": 3242,
      "roy": 3243,
      "Ġ'/": 3244,
      "Ġpolit": 3245,
      "Ġ''": 3246,
      "ymb": 3247,
      "Ph": 3248,
      "Ġadv": 3249,
      "Ġattack": 3250,
      "ĠSte": 3251,
      "ROM": 3252,
      "ana": 3253,
      "Ġmeans": 3254,
      "Ġstory": 3255,
      "ids": 3256,
      "aken": 3257,
      "Ġmeet": 3258,
      "Ġmom": 3259,
      "ĠâĢĺ": 3260,
      "Ġ?>": 3261,
      "Ġden": 3262,
      "obile": 3263,
      "change": 3264,
      "ĠĠĠĠĠĠĠĠĠĠĠĠĊ": 3265,
      "ici": 3266,
      "na": 3267,
      "ĠForm": 3268,
      "Ġsort": 3269,
      "Select": 3270,
      "pare": 3271,
      "Ġthought": 3272,
      "_con": 3273,
      "Ġtask": 3274,
      "ocus": 3275,
      "ĠDE": 3276,
      "ĠMin": 3277,
      "Ġopt": 3278,
      "ĉbreak": 3279,
      "umer": 3280,
      "KE": 3281,
      "then": 3282,
      "Ġdet": 3283,
      "ĠTest": 3284,
      "ports": 3285,
      "Ġreview": 3286,
      "('/": 3287,
      "move": 3288,
      "Ġswitch": 3289,
      "ERT": 3290,
      "patch": 3291,
      "annot": 3292,
      "ãĤ": 3293,
      "Ġabove": 3294,
      "itive": 3295,
      "Ġquestion": 3296,
      "ĠQu": 3297,
      "gle": 3298,
      "Ġword": 3299,
      "Ġprovide": 3300,
      "ĠReturn": 3301,
      "Ġresearch": 3302,
      "Ã£o": 3303,
      "ustr": 3304,
      "Ġpublish": 3305,
      "chema": 3306,
      "}}": 3307,
      "ĠCON": 3308,
      "-in": 3309,
      "allback": 3310,
      "Ġcover": 3311,
      "\\\\": 3312,
      "color": 3313,
      "ĠIS": 3314,
      "Ġwhether": 3315,
      "imate": 3316,
      "isc": 3317,
      "Bar": 3318,
      "Ġdiv": 3319,
      "Be": 3320,
      "ourn": 3321,
      "Ġhaving": 3322,
      "lem": 3323,
      "player": 3324,
      "abs": 3325,
      "amera": 3326,
      "ney": 3327,
      "Ġexc": 3328,
      "gether": 3329,
      "plied": 3330,
      "ao": 3331,
      "[$": 3332,
      "Ġ++": 3333,
      "ipe": 3334,
      "show": 3335,
      "/d": 3336,
      "[:": 3337,
      "agement": 3338,
      "lev": 3339,
      "_ID": 3340,
      "rary": 3341,
      "ades": 3342,
      "_se": 3343,
      "ause": 3344,
      "Ġemploy": 3345,
      "Ġfre": 3346,
      "Ġ'@": 3347,
      "Ġcomplet": 3348,
      "Ġlarge": 3349,
      "ral": 3350,
      "\\x": 3351,
      "Ġfac": 3352,
      "<String": 3353,
      "Ġcreated": 3354,
      "uper": 3355,
      ".state": 3356,
      "Ġhost": 3357,
      "eneric": 3358,
      "/b": 3359,
      "(!": 3360,
      "while": 3361,
      "ias": 3362,
      "BUG": 3363,
      "Ġrole": 3364,
      "Reg": 3365,
      "ĠColor": 3366,
      "Start": 3367,
      "Ġporn": 3368,
      "top": 3369,
      "Ġweb": 3370,
      "Ġdev": 3371,
      "Ġdeal": 3372,
      "Integer": 3373,
      "position": 3374,
      ".on": 3375,
      "Ġ(\"": 3376,
      "Ġproblem": 3377,
      "sv": 3378,
      "Ġpress": 3379,
      "ABLE": 3380,
      "ATION": 3381,
      "ĠSee": 3382,
      "anch": 3383,
      "Ġthough": 3384,
      "leep": 3385,
      "Ġ<!--": 3386,
      "Ġpoints": 3387,
      "ĠĠĠĠĠĠĠĠĠĠĠĠĠĠĠĠĠĠĠĠĠĠĠĠĠ": 3388,
      ".J": 3389,
      "Ġ::": 3390,
      "ptr": 3391,
      "DB": 3392,
      ".png": 3393,
      "node": 3394,
      "soft": 3395,
      "pond": 3396,
      "Ġever": 3397,
      "----------------------------------------------------------------": 3398,
      "Menu": 3399,
      "('#": 3400,
      "Ġservices": 3401,
      "pg": 3402,
      "params": 3403,
      "Ġactually": 3404,
      "Ġ\"/": 3405,
      "Empty": 3406,
      "Method": 3407,
      "Ġident": 3408,
      "unic": 3409,
      "Ġmillion": 3410,
      "Ġaff": 3411,
      "style": 3412,
      "Ġconc": 3413,
      "ios": 3414,
      "ignment": 3415,
      "ULT": 3416,
      "Pr": 3417,
      "Ġunderstand": 3418,
      "uary": 3419,
      "Ġhappen": 3420,
      "Ġserver": 3421,
      "ĠCo": 3422,
      "SC": 3423,
      "Ġles": 3424,
      "Ġfiles": 3425,
      "Grid": 3426,
      "sql": 3427,
      "Ġoften": 3428,
      "Ġinfo": 3429,
      "_tr": 3430,
      "src": 3431,
      "ony": 3432,
      "Ġspace": 3433,
      "umb": 3434,
      "Ġpassword": 3435,
      "Ġstore": 3436,
      "ĠWhat": 3437,
      "ged": 3438,
      "ĠFalse": 3439,
      "Us": 3440,
      "swer": 3441,
      "_index": 3442,
      "Ġformat": 3443,
      "most": 3444,
      "sm": 3445,
      "New": 3446,
      "Ġdetails": 3447,
      "Ġprob": 3448,
      "ĠAND": 3449,
      "ilar": 3450,
      "Ġ${": 3451,
      "rypt": 3452,
      ".Collections": 3453,
      "$this": 3454,
      "ĠFree": 3455,
      "_of": 3456,
      "(false": 3457,
      "dated": 3458,
      "Ġ>>": 3459,
      "Ġface": 3460,
      "CTION": 3461,
      "Ġsave": 3462,
      "Ġtyp": 3463,
      "dev": 3464,
      "(\"#": 3465,
      "AGE": 3466,
      "container": 3467,
      "edit": 3468,
      "QL": 3469,
      "Ġitems": 3470,
      "Ġsocial": 3471,
      "ien": 3472,
      "ĠReact": 3473,
      "Ġmar": 3474,
      "Ġredu": 3475,
      "ĠRE": 3476,
      ".put": 3477,
      "Ġmajor": 3478,
      "Cell": 3479,
      "next": 3480,
      "Ġexpected": 3481,
      "Ġyet": 3482,
      "Ġindiv": 3483,
      "tributes": 3484,
      "atis": 3485,
      "amed": 3486,
      "Ġfood": 3487,
      "Source": 3488,
      "(string": 3489,
      "ites": 3490,
      "dr": 3491,
      "Ġmembers": 3492,
      "Ġcomb": 3493,
      "items": 3494,
      "ĠPer": 3495,
      "TH": 3496,
      "=True": 3497,
      "Ġbar": 3498,
      "_SE": 3499,
      "comm": 3500,
      "(w": 3501,
      "Ġsend": 3502,
      "Ġinc": 3503,
      "unsigned": 3504,
      "FA": 3505,
      "Ġparams": 3506,
      "apping": 3507,
      "ros": 3508,
      "ugin": 3509,
      "fa": 3510,
      "Ġconnection": 3511,
      "Ġbecome": 3512,
      "Mode": 3513,
      "Ġev": 3514,
      "Ġdiff": 3515,
      "ĠUnited": 3516,
      "Height": 3517,
      "fully": 3518,
      "images": 3519,
      "Ġmakes": 3520,
      "Ġglobal": 3521,
      "Ġcontact": 3522,
      "Ġabs": 3523,
      "float": 3524,
      "Ġexcept": 3525,
      "ĠPol": 3526,
      "Child": 3527,
      "typ": 3528,
      "Ġcertain": 3529,
      "iÃ³n": 3530,
      "OUT": 3531,
      "Ġimpro": 3532,
      "iles": 3533,
      "ĠPart": 3534,
      "values": 3535,
      "oss": 3536,
      "/**": 3537,
      "ilit": 3538,
      "ĠEvent": 3539,
      "curity": 3540,
      "ster": 3541,
      "Ġcharacter": 3542,
      "Ġnews": 3543,
      "Ġ\",": 3544,
      "Ġdevice": 3545,
      "cel": 3546,
      "login": 3547,
      "heet": 3548,
      "Default": 3549,
      "@\"": 3550,
      "ĉĠ": 3551,
      "click": 3552,
      "(value": 3553,
      "ĠAb": 3554,
      "Ġprevious": 3555,
      "ERROR": 3556,
      "ocal": 3557,
      "Ġmaterial": 3558,
      "Ġbelow": 3559,
      "ĠChrist": 3560,
      "Ġmedia": 3561,
      "cover": 3562,
      "ĠUI": 3563,
      "Ġfail": 3564,
      "Ġblack": 3565,
      "Ġcomponent": 3566,
      "ĠAmerican": 3567,
      "Ġadded": 3568,
      "Ġbuy": 3569,
      "stit": 3570,
      "Ġcame": 3571,
      "Ġdelete": 3572,
      "property": 3573,
      "oding": 3574,
      "Ġcard": 3575,
      "rops": 3576,
      "Ġhttps": 3577,
      "Ġroot": 3578,
      "Ġhandle": 3579,
      "CC": 3580,
      "Back": 3581,
      "emplate": 3582,
      "Ġgetting": 3583,
      "_by": 3584,
      "mail": 3585,
      "_sh": 3586,
      ".assert": 3587,
      "ĠDec": 3588,
      "(true": 3589,
      "Ġcomput": 3590,
      "Ġclaim": 3591,
      "'=>": 3592,
      "ĠSub": 3593,
      "Ġair": 3594,
      "ops": 3595,
      "nav": 3596,
      "ements": 3597,
      "(id": 3598,
      "Ġenter": 3599,
      "anged": 3600,
      "End": 3601,
      "Ġlocation": 3602,
      "Ġnight": 3603,
      "Ġdoing": 3604,
      "ĠRed": 3605,
      "lin": 3606,
      "vider": 3607,
      "Ġpick": 3608,
      "Ġwatch": 3609,
      "essages": 3610,
      "Ġhuman": 3611,
      "Ġdam": 3612,
      "pend": 3613,
      "dir": 3614,
      "Ġtax": 3615,
      "Ġgirl": 3616,
      "reet": 3617,
      "Ġbox": 3618,
      "Ġstrong": 3619,
      "(v": 3620,
      "rel": 3621,
      "Ġinterface": 3622,
      "Ġmsg": 3623,
      "fect": 3624,
      "_at": 3625,
      "Ġhouse": 3626,
      "Ġtrack": 3627,
      "je": 3628,
      "ĠJohn": 3629,
      "istr": 3630,
      "(S": 3631,
      "ube": 3632,
      "Ġce": 3633,
      "itted": 3634,
      "VER": 3635,
      "*)": 3636,
      "parent": 3637,
      "Ġapplication": 3638,
      "any": 3639,
      ".swing": 3640,
      "Ġpack": 3641,
      "\\u": 3642,
      "Ġpract": 3643,
      "Ġsection": 3644,
      "ctx": 3645,
      "Ġunsigned": 3646,
      ".Point": 3647,
      "ĠOne": 3648,
      "Ä±": 3649,
      "iple": 3650,
      "aid": 3651,
      "Ñĥ": 3652,
      "Vector": 3653,
      "byte": 3654,
      "Ġwait": 3655,
      "ĠÃł": 3656,
      "Ã¥": 3657,
      "Ġtogether": 3658,
      "Ġthrows": 3659,
      "FO": 3660,
      "'))": 3661,
      "host": 3662,
      "ising": 3663,
      ".view": 3664,
      "Ġterms": 3665,
      "framework": 3666,
      "-r": 3667,
      "Ġapply": 3668,
      "Ġsession": 3669,
      "Options": 3670,
      "uggest": 3671,
      "Ġothers": 3672,
      "witter": 3673,
      "Ġfund": 3674,
      "Init": 3675,
      "__(": 3676,
      "ensor": 3677,
      "GET": 3678,
      "Ġseveral": 3679,
      "ii": 3680,
      "[j": 3681,
      "IO": 3682,
      "Ġtemplate": 3683,
      "Position": 3684,
      "Ġecon": 3685,
      "achine": 3686,
      "Ġil": 3687,
      ".spring": 3688,
      "main": 3689,
      "elt": 3690,
      "iment": 3691,
      "Rec": 3692,
      "mm": 3693,
      "ĠUniversity": 3694,
      "ursor": 3695,
      "ĠĠĠĠĠĠĠĠĠĠĠĠĠĠĠĠĠĠĠĠ": 3696,
      "GL": 3697,
      "icture": 3698,
      "ithub": 3699,
      "cer": 3700,
      "cast": 3701,
      "From": 3702,
      "ales": 3703,
      "Ġsubject": 3704,
      "password": 3705,
      "ny": 3706,
      "Ġesc": 3707,
      ".write": 3708,
      "ï¼Į": 3709,
      "What": 3710,
      ".H": 3711,
      "Ġhistory": 3712,
      "ĠFe": 3713,
      "Ġindividual": 3714,
      "unit": 3715,
      "Ġ-->": 3716,
      "Ġdu": 3717,
      "IST": 3718,
      "Ġusers": 3719,
      "fs": 3720,
      "false": 3721,
      "unt": 3722,
      "Title": 3723,
      "Ġmot": 3724,
      "Ġfuture": 3725,
      "ached": 3726,
      "Ġstarted": 3727,
      "Ġmode": 3728,
      "Ġ'<": 3729,
      "_array": 3730,
      "Ġax": 3731,
      "ires": 3732,
      "There": 3733,
      "ught": 3734,
      "tml": 3735,
      "posed": 3736,
      "icult": 3737,
      "Ġtook": 3738,
      "Ġgames": 3739,
      "Ġ}}": 3740,
      "Ġproducts": 3741,
      "Is": 3742,
      "Ġbad": 3743,
      "ĠDes": 3744,
      ".path": 3745,
      "ĠPost": 3746,
      "avel": 3747,
      "(:": 3748,
      "Ġneeds": 3749,
      "Ġknown": 3750,
      "Fl": 3751,
      "Ġexec": 3752,
      "Ġseen": 3753,
      "ume": 3754,
      "Ġborder": 3755,
      "Ġlive": 3756,
      "temp": 3757,
      "Per": 3758,
      "Ġvariable": 3759,
      "iet": 3760,
      "ĠDef": 3761,
      "Ġge": 3762,
      "eme": 3763,
      "_back": 3764,
      "first": 3765,
      "Ġprovided": 3766,
      "////////////////////////////////": 3767,
      "Ġfilename": 3768,
      "Ġhope": 3769,
      "uly": 3770,
      "auto": 3771,
      "find": 3772,
      "_string": 3773,
      "btn": 3774,
      "itude": 3775,
      "Attribute": 3776,
      "Ġyoung": 3777,
      ".txt": 3778,
      "Ġwebsite": 3779,
      "ĠProp": 3780,
      "Ġey": 3781,
      "ional": 3782,
      "ARR": 3783,
      "ictionary": 3784,
      "urther": 3785,
      ".</": 3786,
      "ALL": 3787,
      "Ġstudy": 3788,
      "ili": 3789,
      "Ġnetwork": 3790,
      "yl": 3791,
      "istance": 3792,
      "OK": 3793,
      "NU": 3794,
      "rest": 3795,
      "ĠST": 3796,
      "icrosoft": 3797,
      "Ġlimit": 3798,
      "Ġcut": 3799,
      "Ġcou": 3800,
      "ogn": 3801,
      "Ġsizeof": 3802,
      "ival": 3803,
      "Ġwent": 3804,
      ".z": 3805,
      "Link": 3806,
      "Ġfire": 3807,
      "Ġacross": 3808,
      "Ġcommunity": 3809,
      "region": 3810,
      "NE": 3811,
      "Ref": 3812,
      "Ġofficial": 3813,
      "Ġvisit": 3814,
      "olve": 3815,
      "Ġreceived": 3816,
      "Ġtoken": 3817,
      "Ġmonths": 3818,
      "Ġanim": 3819,
      "Ġparticular": 3820,
      "styles": 3821,
      "ico": 3822,
      "Ġess": 3823,
      ".Control": 3824,
      "ĠÃ©": 3825,
      "ball": 3826,
      "Ġlearn": 3827,
      "inding": 3828,
      "Var": 3829,
      "Ġdecl": 3830,
      "(err": 3831,
      "LECT": 3832,
      "One": 3833,
      "pha": 3834,
      "Ġ~": 3835,
      "fort": 3836,
      "asure": 3837,
      "Ġmind": 3838,
      "ĠEnd": 3839,
      "Check": 3840,
      "Ġquick": 3841,
      "\"),": 3842,
      "AND": 3843,
      "utions": 3844,
      "Base": 3845,
      "________": 3846,
      "Ġcomment": 3847,
      "INE": 3848,
      "âĢĻve": 3849,
      "But": 3850,
      "ĠEl": 3851,
      "ĠUs": 3852,
      "Ġadmin": 3853,
      "mark": 3854,
      "ĠName": 3855,
      "ĠType": 3856,
      "amic": 3857,
      "pc": 3858,
      "loor": 3859,
      "FT": 3860,
      "Ġopp": 3861,
      "cket": 3862,
      ")->": 3863,
      "tx": 3864,
      "Ġpur": 3865,
      "uel": 3866,
      "ymbol": 3867,
      "uation": 3868,
      "anger": 3869,
      "Ġbackground": 3870,
      "ecess": 3871,
      "efined": 3872,
      "........": 3873,
      "Ġdescription": 3874,
      "Ġrepresent": 3875,
      "pression": 3876,
      "rowser": 3877,
      "Ġseries": 3878,
      "wards": 3879,
      "($_": 3880,
      "aise": 3881,
      "Ġhot": 3882,
      "acity": 3883,
      "ries": 3884,
      "actions": 3885,
      "Create": 3886,
      "adio": 3887,
      "amples": 3888,
      "Ġoriginal": 3889,
      "ensive": 3890,
      "font": 3891,
      "stream": 3892,
      "ï»¿using": 3893,
      ".springframework": 3894,
      "server": 3895,
      "Ġbill": 3896,
      "ACK": 3897,
      "ilename": 3898,
      "Ġframe": 3899,
      "Edit": 3900,
      "adius": 3901,
      "Ġdraw": 3902,
      "anks": 3903,
      "Ġdeter": 3904,
      "Ġcomes": 3905,
      "_int": 3906,
      "Ġforeach": 3907,
      "angle": 3908,
      "Ġelect": 3909,
      "pected": 3910,
      "Header": 3911,
      "istration": 3912,
      "False": 3913,
      "ĠGame": 3914,
      "Ġfilter": 3915,
      "Activity": 3916,
      "Ġlarg": 3917,
      "inition": 3918,
      "Ġ\"<": 3919,
      "ised": 3920,
      "Ġremove": 3921,
      "ĠTrans": 3922,
      "met": 3923,
      "see": 3924,
      "Format": 3925,
      "Command": 3926,
      "ĠEX": 3927,
      "None": 3928,
      "Ġfront": 3929,
      "ASE": 3930,
      "ĠRec": 3931,
      "oundation": 3932,
      "Ġvo": 3933,
      "=\\\"": 3934,
      "(*": 3935,
      "Change": 3936,
      ".Write": 3937,
      "group": 3938,
      "ients": 3939,
      "uy": 3940,
      "****************************************************************": 3941,
      "Ġdig": 3942,
      "hr": 3943,
      "(-": 3944,
      "Ġgen": 3945,
      "number": 3946,
      "vec": 3947,
      "urope": 3948,
      "entry": 3949,
      "LL": 3950,
      "Ġste": 3951,
      "Valid": 3952,
      "'],": 3953,
      "_param": 3954,
      "Ġselected": 3955,
      "Ġaccording": 3956,
      "ĠDis": 3957,
      "Ġutil": 3958,
      "Buffer": 3959,
      "_error": 3960,
      "Ġassoci": 3961,
      "_SIZE": 3962,
      "Ġwor": 3963,
      "Ġprintf": 3964,
      "rag": 3965,
      "Âł": 3966,
      "DD": 3967,
      "ĠVal": 3968,
      "Ġactiv": 3969,
      "Eng": 3970,
      "etime": 3971,
      "Ġvirtual": 3972,
      "aign": 3973,
      "aur": 3974,
      "ĠPres": 3975,
      "ĠException": 3976,
      "Ġanything": 3977,
      "ĠOff": 3978,
      "Ġhours": 3979,
      "Ġwar": 3980,
      "Args": 3981,
      "aging": 3982,
      "Ġmodels": 3983,
      "ĠTime": 3984,
      "Ob": 3985,
      "ams": 3986,
      "joy": 3987,
      "Ġearly": 3988,
      ".read": 3989,
      "Ġcenter": 3990,
      "ĠInitial": 3991,
      "Ġlanguage": 3992,
      "length": 3993,
      "xy": 3994,
      "Ġsn": 3995,
      "Ġinf": 3996,
      "Post": 3997,
      "Ġago": 3998,
      "Ġeasy": 3999,
      "_code": 4000,
      "ĠANY": 4001,
      "_ch": 4002,
      "Ġdownload": 4003,
      "(T": 4004,
      "aved": 4005,
      "âĢĵ": 4006,
      "Ġstudents": 4007,
      "Ġfig": 4008,
      "light": 4009,
      "xx": 4010,
      "Ġbuffer": 4011,
      "ĠDep": 4012,
      "ĠMath": 4013,
      "ITH": 4014,
      "Ġvari": 4015,
      "Ġdue": 4016,
      "Factory": 4017,
      "Ġpor": 4018,
      "Ġep": 4019,
      "otype": 4020,
      "Ġcannot": 4021,
      "Ġwhite": 4022,
      "<int": 4023,
      "tern": 4024,
      "Ġregister": 4025,
      "Ġpred": 4026,
      "clus": 4027,
      "_date": 4028,
      "Ġ/**": 4029,
      "Ġauth": 4030,
      "Ġperiod": 4031,
      "nown": 4032,
      "Ġvot": 4033,
      "Ġscreen": 4034,
      "'d": 4035,
      "Types": 4036,
      "Ġtmp": 4037,
      "ural": 4038,
      "Ġbenef": 4039,
      "_y": 4040,
      "Ġnet": 4041,
      "ĠStates": 4042,
      "']['": 4043,
      "ĠNe": 4044,
      "ĠNOT": 4045,
      "Ġneg": 4046,
      "Ġcommon": 4047,
      "scope": 4048,
      "Ġcred": 4049,
      "ges": 4050,
      "_TYPE": 4051,
      "Ġsuggest": 4052,
      "oom": 4053,
      "Ġaccept": 4054,
      "Ġrandom": 4055,
      "erm": 4056,
      "ĠVector": 4057,
      "with": 4058,
      "TER": 4059,
      "(str": 4060,
      "Ġrespons": 4061,
      "Ġhit": 4062,
      ".Set": 4063,
      "grid": 4064,
      "ria": 4065,
      "Ġclick": 4066,
      "undle": 4067,
      "Case": 4068,
      "insert": 4069,
      "Utils": 4070,
      "Ġ\"\"\"": 4071,
      "Ġimplement": 4072,
      "atal": 4073,
      "tempt": 4074,
      "template": 4075,
      "ocr": 4076,
      "returns": 4077,
      "Ġplayers": 4078,
      "users": 4079,
      "edef": 4080,
      "ĠThese": 4081,
      "Ġamong": 4082,
      "Ġdeb": 4083,
      "ha": 4084,
      ".getElement": 4085,
      "Ġcirc": 4086,
      "Ġanswer": 4087,
      "Ġwalk": 4088,
      "Ġtreat": 4089,
      "ĠGe": 4090,
      "ĠCreate": 4091,
      "Ġage": 4092,
      "Ġreq": 4093,
      "OST": 4094,
      "angular": 4095,
      "Ñı": 4096,
      "Ġfive": 4097,
      "Ġdistributed": 4098,
      "Ġfriend": 4099,
      "TP": 4100,
      "Ġclean": 4101,
      "ows": 4102,
      ".Controls": 4103,
      "dis": 4104,
      "Ġwords": 4105,
      ".io": 4106,
      "zy": 4107,
      "Ġheader": 4108,
      "ĠCheck": 4109,
      "âĢĻm": 4110,
      "just": 4111,
      "holder": 4112,
      "=\"<?": 4113,
      "ĠGNU": 4114,
      "ĠCol": 4115,
      "imest": 4116,
      "entic": 4117,
      "Ġtre": 4118,
      "last": 4119,
      "la": 4120,
      "ĠYork": 4121,
      "Lo": 4122,
      "Ġdiscuss": 4123,
      "ĠGod": 4124,
      "Ġissue": 4125,
      "rew": 4126,
      "Window": 4127,
      "Ġland": 4128,
      "Ġstream": 4129,
      "ĠPar": 4130,
      "Ġquality": 4131,
      "Par": 4132,
      "_num": 4133,
      "Ġsal": 4134,
      "elves": 4135,
      "ORD": 4136,
      "(user": 4137,
      "Ġworks": 4138,
      "Ġhalf": 4139,
      "enses": 4140,
      "vas": 4141,
      "Ġpolice": 4142,
      "(\"/": 4143,
      "ua": 4144,
      "Ġsimple": 4145,
      "Address": 4146,
      "Ġempty": 4147,
      "esh": 4148,
      "Update": 4149,
      "ĠCreated": 4150,
      "('.": 4151,
      "ĠĠĠĠĠĠĠĠĠĠĠĠĠĠĠĠĠĠ": 4152,
      "Ġagre": 4153,
      "ĠFROM": 4154,
      "Ġcook": 4155,
      "Ġeverything": 4156,
      "ilities": 4157,
      ".status": 4158,
      "Ġrelations": 4159,
      "extern": 4160,
      "Ġnothing": 4161,
      "Ġrunning": 4162,
      "ĉvoid": 4163,
      "RI": 4164,
      "_a": 4165,
      "_CON": 4166,
      "por": 4167,
      ".sub": 4168,
      "require": 4169,
      "ĠCity": 4170,
      "ĠWest": 4171,
      "Ġmor": 4172,
      "store": 4173,
      "Equals": 4174,
      "oder": 4175,
      "Ġna": 4176,
      "Ġ[[": 4177,
      "Ġ('": 4178,
      "ĠDon": 4179,
      "ERS": 4180,
      "/p": 4181,
      ".json": 4182,
      "abor": 4183,
      "Ġsomeone": 4184,
      "_text": 4185,
      ".css": 4186,
      ".Tab": 4187,
      "ĠSome": 4188,
      "ato": 4189,
      "double": 4190,
      "Ġshare": 4191,
      "(void": 4192,
      "_dir": 4193,
      "Ġur": 4194,
      "Stack": 4195,
      "ĠWorld": 4196,
      ".X": 4197,
      "stract": 4198,
      "How": 4199,
      ".Generic": 4200,
      "icles": 4201,
      "Ġentry": 4202,
      "Ġchanges": 4203,
      "Ġpersonal": 4204,
      "(A": 4205,
      "Ġoffset": 4206,
      "_ptr": 4207,
      "Ġpie": 4208,
      "ĠJan": 4209,
      "-group": 4210,
      "module": 4211,
      "Items": 4212,
      "ĠHowever": 4213,
      "verage": 4214,
      ".Font": 4215,
      "Ġevents": 4216,
      ".min": 4217,
      "Ġinvol": 4218,
      "za": 4219,
      "Ġwhole": 4220,
      "Ġneeded": 4221,
      "Ġlikely": 4222,
      "rief": 4223,
      "ORM": 4224,
      "version": 4225,
      "Ġfight": 4226,
      "Ġein": 4227,
      "Frame": 4228,
      "gen": 4229,
      "ĠOut": 4230,
      "avigation": 4231,
      "Length": 4232,
      "illed": 4233,
      "quence": 4234,
      "Ġ!==": 4235,
      "ĠSoftware": 4236,
      "Ġwriting": 4237,
      "Ġrate": 4238,
      "Panel": 4239,
      "inner": 4240,
      "Ġ[\"": 4241,
      "Ġtw": 4242,
      "cd": 4243,
      "_state": 4244,
      "ĠSm": 4245,
      "ĠMark": 4246,
      "prot": 4247,
      "ĠMr": 4248,
      "method": 4249,
      "ustomer": 4250,
      "Icon": 4251,
      "Ġcorrect": 4252,
      "(object": 4253,
      "ĠMore": 4254,
      "Ġfall": 4255,
      "Ġvol": 4256,
      "Ġdevelopment": 4257,
      "ently": 4258,
      "Ġsi": 4259,
      "medi": 4260,
      "ving": 4261,
      "PP": 4262,
      "aker": 4263,
      "Ġindu": 4264,
      "Ġelif": 4265,
      "Ġpret": 4266,
      "Ġbelieve": 4267,
      "ns": 4268,
      "omet": 4269,
      "ĠIntern": 4270,
      "Rect": 4271,
      "So": 4272,
      ".error": 4273,
      "Read": 4274,
      "Ġfeatures": 4275,
      "Ġminutes": 4276,
      "---": 4277,
      "asing": 4278,
      "cret": 4279,
      ".annot": 4280,
      "Ġcollection": 4281,
      "'.": 4282,
      "Ġsimilar": 4283,
      "Ġtaken": 4284,
      "(\"%": 4285,
      "Order": 4286,
      "-md": 4287,
      "ĠTH": 4288,
      "aced": 4289,
      "Ġisn": 4290,
      "/j": 4291,
      "Ġson": 4292,
      "graph": 4293,
      "ĠInteger": 4294,
      "Ġnecess": 4295,
      "reen": 4296,
      "Ġum": 4297,
      "Ġ\\<": 4298,
      "Ġmoment": 4299,
      "Ġbring": 4300,
      "Ġindic": 4301,
      "ysis": 4302,
      "Level": 4303,
      "verse": 4304,
      "urrenc": 4305,
      "_test": 4306,
      "Ġentire": 4307,
      "Down": 4308,
      "(result": 4309,
      "ĠRead": 4310,
      "Ã¨": 4311,
      "Mod": 4312,
      "Ġtrying": 4313,
      "Ġmember": 4314,
      "ĠCor": 4315,
      "ODO": 4316,
      "-control": 4317,
      "untime": 4318,
      "ĠSim": 4319,
      "Dialog": 4320,
      "plot": 4321,
      "_on": 4322,
      "Ġphys": 4323,
      "}/": 4324,
      "Ġnamespace": 4325,
      "ĉčĊ": 4326,
      "acc": 4327,
      "Player": 4328,
      "ARE": 4329,
      "Ġfoot": 4330,
      "Ġboard": 4331,
      "part": 4332,
      "Ġsus": 4333,
      "wise": 4334,
      "ĠMc": 4335,
      "Ġpush": 4336,
      "ATA": 4337,
      "Ġplease": 4338,
      "ried": 4339,
      "weet": 4340,
      "bit": 4341,
      "ided": 4342,
      "VE": 4343,
      "ĠSw": 4344,
      "UB": 4345,
      "Ġtypes": 4346,
      "edia": 4347,
      "Ġclos": 4348,
      "acebook": 4349,
      "When": 4350,
      "Ġedit": 4351,
      "igger": 4352,
      "Ġenerg": 4353,
      "Container": 4354,
      "Ġphot": 4355,
      "ĠCount": 4356,
      "ĠEurope": 4357,
      ".Is": 4358,
      "ĠRuss": 4359,
      "peed": 4360,
      "ĠStr": 4361,
      "Ġpy": 4362,
      "Ġcult": 4363,
      "Ġdefined": 4364,
      "ccount": 4365,
      "Ġobt": 4366,
      ".Location": 4367,
      "Ġthread": 4368,
      "ille": 4369,
      "Ġinstead": 4370,
      "strong": 4371,
      "ĠSec": 4372,
      "URE": 4373,
      "Ġidea": 4374,
      ".se": 4375,
      "emy": 4376,
      "selected": 4377,
      "Connection": 4378,
      "acing": 4379,
      "thread": 4380,
      ".next": 4381,
      "Ġcoll": 4382,
      "Ġfilm": 4383,
      "istic": 4384,
      "Ġcompet": 4385,
      "Ġconn": 4386,
      "though": 4387,
      "Ġcompan": 4388,
      "ocket": 4389,
      "Ġteach": 4390,
      "=(": 4391,
      "Ġphone": 4392,
      "Ġactive": 4393,
      "delete": 4394,
      "tries": 4395,
      "Ġmo": 4396,
      "Ġdeath": 4397,
      "ocol": 4398,
      "Widget": 4399,
      "Ġarticle": 4400,
      "rodu": 4401,
      "andid": 4402,
      "Ñĭ": 4403,
      "ĠCr": 4404,
      "ka": 4405,
      "():": 4406,
      "lood": 4407,
      "ĉĉĉĊ": 4408,
      "Ġalmost": 4409,
      "Ġsell": 4410,
      "ervlet": 4411,
      "rip": 4412,
      "Unit": 4413,
      "Ġapplic": 4414,
      "Ġconnect": 4415,
      "Ġfeature": 4416,
      "Ġvia": 4417,
      "'),": 4418,
      "Ġlim": 4419,
      "ĠĠĠĠĠĠĠĠĠĠĠĠĠĠĠĠĠĠĠĠĠĠĠĠĠĠĠĠĠĠĠĠĠĠĠĠĠĠĠĠĠĠĠĠĠĠĠ": 4420,
      "ĠGu": 4421,
      "Engine": 4422,
      "Ġens": 4423,
      "Ġenvironment": 4424,
      "block": 4425,
      "HERE": 4426,
      "NULL": 4427,
      "gy": 4428,
      "tag": 4429,
      ")).": 4430,
      "exp": 4431,
      "Ġcompl": 4432,
      "Ġinstall": 4433,
      "Ġcomplete": 4434,
      "queue": 4435,
      "atural": 4436,
      "Ġgeneral": 4437,
      "thon": 4438,
      "Ġasked": 4439,
      "ores": 4440,
      "(res": 4441,
      "Ġreserved": 4442,
      "SP": 4443,
      "ĠâĢ¦": 4444,
      "ÅĤ": 4445,
      "Ġsignific": 4446,
      "Off": 4447,
      "ĠĠĠĠĠĠĠĠĠĠĠĠĠĠĠĠĠĠĠĠĠĠĠĠĠĠĠĠĠ": 4448,
      "ĠAg": 4449,
      "ĠJust": 4450,
      "ĠError": 4451,
      "Ġinfl": 4452,
      "adata": 4453,
      "Ġicon": 4454,
      "asks": 4455,
      "''": 4456,
      "_LO": 4457,
      "?.": 4458,
      "account": 4459,
      "Ġ(*": 4460,
      "rap": 4461,
      "_var": 4462,
      "ĠFOR": 4463,
      "Ġparty": 4464,
      "ĠYour": 4465,
      "cat": 4466,
      "stry": 4467,
      ".new": 4468,
      "boot": 4469,
      "ĠNov": 4470,
      "Ġvector": 4471,
      "Ġnormal": 4472,
      "Ġfurther": 4473,
      "Repository": 4474,
      "Ġdatabase": 4475,
      "attle": 4476,
      "Ġmusic": 4477,
      "Ġspeed": 4478,
      "Ġdoc": 4479,
      "process": 4480,
      "IGHT": 4481,
      ".parse": 4482,
      "Ġtaking": 4483,
      "Ġviol": 4484,
      "ceed": 4485,
      "ĠAfter": 4486,
      "Ġforward": 4487,
      "Ġcrit": 4488,
      "rot": 4489,
      "Ġfailed": 4490,
      "efore": 4491,
      "Ġconcern": 4492,
      "oe": 4493,
      "ba": 4494,
      "Ġsender": 4495,
      "Ġterm": 4496,
      "has": 4497,
      "=\"#": 4498,
      "Ġpotential": 4499,
      "Num": 4500,
      "Ġpublished": 4501,
      ".close": 4502,
      "ĠImage": 4503,
      "straint": 4504,
      "UD": 4505,
      "ĠOb": 4506,
      "Ġprobably": 4507,
      "lim": 4508,
      "olume": 4509,
      "Ġconsum": 4510,
      "ague": 4511,
      "ensions": 4512,
      "Ġinvestig": 4513,
      "-year": 4514,
      "');": 4515,
      "-sm": 4516,
      "Ġenjoy": 4517,
      "orig": 4518,
      "ering": 4519,
      "cp": 4520,
      "leased": 4521,
      "plements": 4522,
      "Ġreturns": 4523,
      "pat": 4524,
      "BO": 4525,
      "ĠHouse": 4526,
      ".Label": 4527,
      "Ġweight": 4528,
      "ighb": 4529,
      "Ġconditions": 4530,
      "Ġexception": 4531,
      "description": 4532,
      "Ġtrad": 4533,
      "-to": 4534,
      "Ġ{}": 4535,
      "Ġmodule": 4536,
      "END": 4537,
      ".ap": 4538,
      ".props": 4539,
      "Ġconstructor": 4540,
      "aves": 4541,
      "Ġfavor": 4542,
      "ĠNow": 4543,
      ";i": 4544,
      "ĠMain": 4545,
      "_k": 4546,
      "eries": 4547,
      "âĢĻll": 4548,
      "transform": 4549,
      "imestamp": 4550,
      "Pre": 4551,
      "Ġmer": 4552,
      ".res": 4553,
      "stant": 4554,
      "Location": 4555,
      "_NAME": 4556,
      "Ġloss": 4557,
      "ĠĊĊ": 4558,
      "net": 4559,
      "Ġengine": 4560,
      "Block": 4561,
      "Ġissues": 4562,
      "Ġparse": 4563,
      "ĠBar": 4564,
      "Ġstay": 4565,
      "ĠJSON": 4566,
      "Ġdom": 4567,
      "airs": 4568,
      "wner": 4569,
      "Ġlower": 4570,
      "ĠDem": 4571,
      "ufact": 4572,
      "Ġps": 4573,
      "Ġperfect": 4574,
      "RL": 4575,
      "Ġeduc": 4576,
      "ls": 4577,
      "emory": 4578,
      "ARRANT": 4579,
      "uge": 4580,
      "Ġexact": 4581,
      ".key": 4582,
      "alled": 4583,
      "ech": 4584,
      "ief": 4585,
      "\\/": 4586,
      "oke": 4587,
      "Ġformer": 4588,
      "alloc": 4589,
      "Ġsix": 4590,
      "ida": 4591,
      "Ġmargin": 4592,
      "Ġheart": 4593,
      "ald": 4594,
      "pack": 4595,
      ".getElementById": 4596,
      "ĠWARRANT": 4597,
      "Ġrather": 4598,
      "Ġbuilding": 4599,
      "erman": 4600,
      "lice": 4601,
      "Ġquestions": 4602,
      "izes": 4603,
      "lege": 4604,
      "irectory": 4605,
      "Ġje": 4606,
      "Ġcas": 4607,
      "props": 4608,
      "utf": 4609,
      "Ġsecurity": 4610,
      "Ġhowever": 4611,
      "weight": 4612,
      "Ġinside": 4613,
      "Ġpresident": 4614,
      "Char": 4615,
      "ĠWITH": 4616,
      ".map": 4617,
      "Ġgraph": 4618,
      "Ġtag": 4619,
      "_status": 4620,
      "Ġattempt": 4621,
      "opp": 4622,
      "uses": 4623,
      "ĉconst": 4624,
      "Ġround": 4625,
      ",$": 4626,
      "Ġfriends": 4627,
      "Email": 4628,
      "?>": 4629,
      "Resource": 4630,
      "KEY": 4631,
      "osp": 4632,
      ".query": 4633,
      "ĠNorth": 4634,
      "ables": 4635,
      "istrib": 4636,
      "_class": 4637,
      "ello": 4638,
      "That": 4639,
      "Ðº": 4640,
      "pecially": 4641,
      "ĠPresident": 4642,
      "Ġcampaign": 4643,
      "Ġalt": 4644,
      "area": 4645,
      "Ġchall": 4646,
      "Ġopport": 4647,
      ".Con": 4648,
      "Ġenergy": 4649,
      "like": 4650,
      ".string": 4651,
      "ington": 4652,
      ")*": 4653,
      "yy": 4654,
      "Ġprofession": 4655,
      "irth": 4656,
      "Ġseg": 4657,
      "Ġhor": 4658,
      "iers": 4659,
      "can": 4660,
      "Ġbehind": 4661,
      "Product": 4662,
      "fg": 4663,
      "ĠSk": 4664,
      ".jpg": 4665,
      "?:": 4666,
      "Ġcallback": 4667,
      "ĠHttp": 4668,
      "ÑĮ": 4669,
      "long": 4670,
      "MS": 4671,
      "ATH": 4672,
      "Ġraise": 4673,
      "Ġwanted": 4674,
      "rown": 4675,
      "utor": 4676,
      "lt": 4677,
      "]=": 4678,
      "eline": 4679,
      "MA": 4680,
      "Ġsepar": 4681,
      "cs": 4682,
      "semb": 4683,
      "Dis": 4684,
      "bserv": 4685,
      "ĠWill": 4686,
      "Ġpolicy": 4687,
      "Ġthird": 4688,
      "phone": 4689,
      "Ġbed": 4690,
      "/g": 4691,
      ".__": 4692,
      "ĠInc": 4693,
      "izing": 4694,
      ".remove": 4695,
      "instance": 4696,
      ".type": 4697,
      "Ġserv": 4698,
      "Each": 4699,
      "Ġhar": 4700,
      "ĠMessage": 4701,
      "(key": 4702,
      "SELECT": 4703,
      "Pos": 4704,
      "Ġrecomm": 4705,
      "Ġtraining": 4706,
      "ĠEnt": 4707,
      "ĠChar": 4708,
      "icht": 4709,
      "(file": 4710,
      "Ġprior": 4711,
      "Game": 4712,
      "Ġexit": 4713,
      "Params": 4714,
      ".core": 4715,
      "PC": 4716,
      "nes": 4717,
      "anced": 4718,
      "(request": 4719,
      "Password": 4720,
      "Ġmag": 4721,
      "Ġrelease": 4722,
      "Ġshall": 4723,
      "udent": 4724,
      "ĠSouth": 4725,
      "ando": 4726,
      ":'": 4727,
      ".TabIndex": 4728,
      "sk": 4729,
      "anner": 4730,
      "isset": 4731,
      "Ġoutside": 4732,
      "ledge": 4733,
      "ĠRob": 4734,
      "Ġimm": 4735,
      "ĠWeb": 4736,
      "Des": 4737,
      "BC": 4738,
      "ancial": 4739,
      "Route": 4740,
      "Dec": 4741,
      "ferences": 4742,
      "Ġpurch": 4743,
      "ĠModel": 4744,
      "ctor": 4745,
      "gn": 4746,
      "_start": 4747,
      "_un": 4748,
      ".*": 4749,
      "ises": 4750,
      "Ġground": 4751,
      "Ġunique": 4752,
      "Ġbeaut": 4753,
      "{\"": 4754,
      "Ġpour": 4755,
      "ĠOct": 4756,
      "Ġtree": 4757,
      "sets": 4758,
      "_res": 4759,
      "')->": 4760,
      "_reg": 4761,
      "(\"\\": 4762,
      "Ġbyte": 4763,
      "Bl": 4764,
      "Ġdating": 4765,
      "Ġmatter": 4766,
      "ĠRem": 4767,
      "Ġ'../": 4768,
      "ĠAug": 4769,
      "ĠLa": 4770,
      "Ġ$(": 4771,
      "ournal": 4772,
      "iam": 4773,
      "Ġshows": 4774,
      "write": 4775,
      "Ġball": 4776,
      "Ġsimply": 4777,
      "Ġfast": 4778,
      "Ġmemory": 4779,
      "ASS": 4780,
      "ĠOf": 4781,
      "oved": 4782,
      "ante": 4783,
      "aul": 4784,
      "istry": 4785,
      "Ġfit": 4786,
      "<string": 4787,
      "Ġpolitical": 4788,
      "ancel": 4789,
      "_.": 4790,
      "card": 4791,
      ".current": 4792,
      "och": 4793,
      "_image": 4794,
      "\\t": 4795,
      "(L": 4796,
      "Ġindustry": 4797,
      "coming": 4798,
      "Ġextra": 4799,
      "Ġreported": 4800,
      ".start": 4801,
      "Ġresources": 4802,
      "Ġimg": 4803,
      "flow": 4804,
      "_EX": 4805,
      "(null": 4806,
      "ĠPre": 4807,
      "Ġwrong": 4808,
      "interface": 4809,
      "Parameter": 4810,
      "ners": 4811,
      "á»": 4812,
      "ture": 4813,
      "ersist": 4814,
      "ountry": 4815,
      "Ġseems": 4816,
      "alance": 4817,
      "dest": 4818,
      "ĉString": 4819,
      "Ġmaint": 4820,
      "Ġunit": 4821,
      "acters": 4822,
      "ĠTR": 4823,
      "iful": 4824,
      "exports": 4825,
      "project": 4826,
      "Application": 4827,
      "legate": 4828,
      "Ġtakes": 4829,
      "term": 4830,
      "Ġetc": 4831,
      "uster": 4832,
      "Ġappear": 4833,
      "address": 4834,
      "Ġfem": 4835,
      "hs": 4836,
      "Ġhom": 4837,
      ",-": 4838,
      "Ġdifficult": 4839,
      "Ġcoming": 4840,
      "Open": 4841,
      "Ġsettings": 4842,
      "ĠWar": 4843,
      "ĠThen": 4844,
      "Ġautom": 4845,
      "ĠFoundation": 4846,
      "Ġquite": 4847,
      "Description": 4848,
      "Ġblog": 4849,
      "iqu": 4850,
      "PS": 4851,
      "_field": 4852,
      "Json": 4853,
      "SSION": 4854,
      "ĠSch": 4855,
      "ĠLO": 4856,
      "Ġdescri": 4857,
      "Ġeveryone": 4858,
      "Ġpretty": 4859,
      "Ġlonger": 4860,
      "Ġmenu": 4861,
      "Ġcurrently": 4862,
      "sec": 4863,
      "Ġrelationship": 4864,
      "################################": 4865,
      "ĠMap": 4866,
      "aset": 4867,
      "Ġparameters": 4868,
      "Ġcrush": 4869,
      "ILITY": 4870,
      "igration": 4871,
      "Ġcout": 4872,
      "total": 4873,
      "Ġnames": 4874,
      "ndef": 4875,
      "\");": 4876,
      "riend": 4877,
      "ynamic": 4878,
      "Ġeffort": 4879,
      "Ġactual": 4880,
      "Ġfields": 4881,
      "OUN": 4882,
      "ters": 4883,
      "Ġfix": 4884,
      "_model": 4885,
      "Ġcases": 4886,
      "CA": 4887,
      "My": 4888,
      "Interface": 4889,
      "ĠSE": 4890,
      "]]": 4891,
      "alle": 4892,
      "ĠNational": 4893,
      "ĠArrayList": 4894,
      "inline": 4895,
      ".V": 4896,
      "ara": 4897,
      "refix": 4898,
      "asc": 4899,
      "Reader": 4900,
      "ĠÐ¿": 4901,
      "astic": 4902,
      "(()": 4903,
      "Cl": 4904,
      ".annotation": 4905,
      "Ġperformance": 4906,
      "aily": 4907,
      ".toString": 4908,
      ".net": 4909,
      "views": 4910,
      ".end": 4911,
      "ayers": 4912,
      "late": 4913,
      "ĠApr": 4914,
      "ederal": 4915,
      "'])": 4916,
      ".body": 4917,
      "Ġhigher": 4918,
      "_fl": 4919,
      "cr": 4920,
      "alert": 4921,
      "_node": 4922,
      "ĠGoogle": 4923,
      "Ġitself": 4924,
      "Auth": 4925,
      "urrency": 4926,
      "Ġsignificant": 4927,
      "append": 4928,
      "Ġrespect": 4929,
      "strap": 4930,
      "Ġuna": 4931,
      "riteria": 4932,
      "PORT": 4933,
      ".apache": 4934,
      "Output": 4935,
      "Ġprogress": 4936,
      "Ġmid": 4937,
      "ĠMicrosoft": 4938,
      "Ġresource": 4939,
      "ablish": 4940,
      "Ġdim": 4941,
      ".load": 4942,
      ".App": 4943,
      "Ġdirection": 4944,
      "Ġadditional": 4945,
      "ĠĠĠĠĠĠĠĠĠĠĠĠĠĠĠĠĠĠĠĠĠĠĠĠ": 4946,
      "Ġnumbers": 4947,
      "Ġcompanies": 4948,
      ".Th": 4949,
      "Ġsound": 4950,
      "username": 4951,
      "Ġstatement": 4952,
      "Ġalert": 4953,
      "Ġcontract": 4954,
      "home": 4955,
      "_length": 4956,
      ".Component": 4957,
      "ev": 4958,
      ".Ex": 4959,
      "ï¼ļ": 4960,
      "\";": 4961,
      "ĠHigh": 4962,
      "ĠPoint": 4963,
      "oph": 4964,
      "Ġlines": 4965,
      "->_": 4966,
      "ox": 4967,
      "application": 4968,
      "ĊĊĊĊĊĊ": 4969,
      "Ġsoon": 4970,
      "ctions": 4971,
      "inger": 4972,
      "Ġjoin": 4973,
      "ĠPe": 4974,
      "Ġë": 4975,
      "Ġlas": 4976,
      ".E": 4977,
      "css": 4978,
      "/or": 4979,
      "ĠStart": 4980,
      "ĠTO": 4981,
      "Ġsubs": 4982,
      "conn": 4983,
      "components": 4984,
      "DEBUG": 4985,
      "quare": 4986,
      "Function": 4987,
      "endar": 4988,
      ".index": 4989,
      "Ġfill": 4990,
      "ÄĻ": 4991,
      "Ġchoose": 4992,
      "how": 4993,
      "ĠAmerica": 4994,
      "assets": 4995,
      "------------": 4996,
      "ĠValue": 4997,
      "Ġoffice": 4998,
      "Ġveh": 4999,
      "Ġtransform": 5000,
      "ĠArt": 5001,
      "Ġinde": 5002,
      "Ġfn": 5003,
      "Ġimplements": 5004,
      "ango": 5005,
      "plete": 5006,
      "+\"": 5007,
      "tmp": 5008,
      "amily": 5009,
      "Ġhash": 5010,
      "missions": 5011,
      "EST": 5012,
      "gt": 5013,
      "Provider": 5014,
      "ĠĠĠĠĠĠĠĠĠĠĠĠĠĠĠĠĠĠĠĠĠĠ": 5015,
      "Ġflag": 5016,
      "Ġparticip": 5017,
      "den": 5018,
      "ĠReturns": 5019,
      "Ġnote": 5020,
      "Ã¼r": 5021,
      "pm": 5022,
      "ideos": 5023,
      "Ġspecified": 5024,
      "ĠEN": 5025,
      "ester": 5026,
      "olid": 5027,
      "Ġupon": 5028,
      "(std": 5029,
      "ĉv": 5030,
      "Ġ'\\": 5031,
      "uz": 5032,
      "Ġvert": 5033,
      "Ġvict": 5034,
      "ĉself": 5035,
      "Ġ\"$": 5036,
      ".k": 5037,
      "Ġgroups": 5038,
      "github": 5039,
      "lang": 5040,
      "Ġmut": 5041,
      "TO": 5042,
      "Ġve": 5043,
      "ĠPlease": 5044,
      "access": 5045,
      "Ġ{\"": 5046,
      "rea": 5047,
      "Ġrisk": 5048,
      "icker": 5049,
      "oggle": 5050,
      "ĉwhile": 5051,
      "ANG": 5052,
      ".send": 5053,
      "Ġwoman": 5054,
      "Ġgets": 5055,
      "Ġign": 5056,
      "ĠId": 5057,
      "_log": 5058,
      "ONE": 5059,
      "Ġevid": 5060,
      "ĠHar": 5061,
      "_sub": 5062,
      "Ġendl": 5063,
      "Ġincluded": 5064,
      "ĠAp": 5065,
      "igr": 5066,
      "Ġsem": 5067,
      "ĠBlack": 5068,
      "doc": 5069,
      "_table": 5070,
      "ĠĠĠĠĠĠĠĠĠĠĠĠĠĠĠĠĠĠĠĠĠĠĠĠĠĠĠĠĠĠĠĠĠĠĠĠĠĠĠĠĠĠĠĠĠĠĠĠĠĠĠĠĠĠĠĠĠĠĠĠĠĠĠĠ": 5071,
      "-up": 5072,
      "Ġcause": 5073,
      "Ġ..": 5074,
      "Ġvan": 5075,
      "_dict": 5076,
      "Ġfocus": 5077,
      "IND": 5078,
      "CESS": 5079,
      ".Log": 5080,
      "Ġmultiple": 5081,
      "ido": 5082,
      "Ġregard": 5083,
      "-M": 5084,
      "andler": 5085,
      "ourse": 5086,
      "Ġdeg": 5087,
      ".U": 5088,
      "Ġaddition": 5089,
      "Ġvarious": 5090,
      "Ġreceive": 5091,
      "ÐµÐ½": 5092,
      "ĠHT": 5093,
      "Obj": 5094,
      "DF": 5095,
      "Ġincrease": 5096,
      "ĠOpen": 5097,
      "];": 5098,
      "Ġcommit": 5099,
      "ategories": 5100,
      "atory": 5101,
      "ship": 5102,
      "ĠMich": 5103,
      "Ġhtml": 5104,
      "romise": 5105,
      "Ġleave": 5106,
      "Ġstrateg": 5107,
      "aven": 5108,
      "ĠConsole": 5109,
      "known": 5110,
      "-n": 5111,
      "_LE": 5112,
      ".component": 5113,
      "Ġbre": 5114,
      "Session": 5115,
      "iance": 5116,
      "Ġalign": 5117,
      "typedef": 5118,
      "_result": 5119,
      "ĠWHERE": 5120,
      ".split": 5121,
      "Ġreading": 5122,
      "FAULT": 5123,
      "Ġclo": 5124,
      "Ġnotice": 5125,
      "_pr": 5126,
      "arter": 5127,
      "Ġlock": 5128,
      "Ġstandard": 5129,
      "etic": 5130,
      "ellow": 5131,
      "Ġpadding": 5132,
      "ĠHis": 5133,
      "Ġstates": 5134,
      "_cast": 5135,
      "(P": 5136,
      "aa": 5137,
      "Ġinternal": 5138,
      "ean": 5139,
      "ĠPRO": 5140,
      "ĠKey": 5141,
      "Ġespecially": 5142,
      "ming": 5143,
      "Ġcross": 5144,
      "Ġnational": 5145,
      "_object": 5146,
      "filter": 5147,
      "Ġscript": 5148,
      ".update": 5149,
      "_i": 5150,
      "ĠAssert": 5151,
      "/core": 5152,
      "%%%%": 5153,
      "Ġproblems": 5154,
      "istor": 5155,
      "Ġ.=": 5156,
      "Ġarch": 5157,
      "Ġwritten": 5158,
      "Ġmilit": 5159,
      "MENT": 5160,
      ".ch": 5161,
      "cape": 5162,
      "ĠMus": 5163,
      "_config": 5164,
      "ĠAPI": 5165,
      "foot": 5166,
      "Ġimages": 5167,
      "endl": 5168,
      ".In": 5169,
      "First": 5170,
      "Ġplatform": 5171,
      ".prot": 5172,
      "Option": 5173,
      "ste": 5174,
      "ĠTODO": 5175,
      "Ġforce": 5176,
      ".cont": 5177,
      "ĉecho": 5178,
      "ĠDav": 5179,
      "Ptr": 5180,
      "(B": 5181,
      "RT": 5182,
      "ĠBase": 5183,
      "]['": 5184,
      "Ġannounc": 5185,
      "console": 5186,
      "ĠPy": 5187,
      "ds": 5188,
      ".as": 5189,
      "Ġprevent": 5190,
      "apan": 5191,
      "Ġ{'": 5192,
      "}</": 5193,
      "ĠService": 5194,
      "ĠSen": 5195,
      "ador": 5196,
      "profile": 5197,
      "Top": 5198,
      "Ġiter": 5199,
      "po": 5200,
      "IES": 5201,
      "JSON": 5202,
      "IE": 5203,
      "iant": 5204,
      "ãĢģ": 5205,
      "_j": 5206,
      "ĠSept": 5207,
      "_map": 5208,
      "bum": 5209,
      "(context": 5210,
      "ĠHome": 5211,
      "ians": 5212,
      "GB": 5213,
      "Ġliving": 5214,
      "Ġpattern": 5215,
      "(input": 5216,
      "icient": 5217,
      "Core": 5218,
      "Ġentity": 5219,
      "Ġinteg": 5220,
      "Changed": 5221,
      "Ġuseful": 5222,
      ".info": 5223,
      "Ġtool": 5224,
      "(item": 5225,
      "Ġok": 5226,
      "Ġfeed": 5227,
      "IX": 5228,
      "Ã©s": 5229,
      "ĠNews": 5230,
      "remove": 5231,
      "erry": 5232,
      "ĉĉĉĉĉĉĉĉĉ": 5233,
      "ipment": 5234,
      "ares": 5235,
      "Do": 5236,
      "Current": 5237,
      ".content": 5238,
      ".Group": 5239,
      "ustral": 5240,
      "ĠÑģ": 5241,
      "})": 5242,
      "Ġpopular": 5243,
      "Ġstre": 5244,
      "Ġmethods": 5245,
      "_ERROR": 5246,
      "Left": 5247,
      "cal": 5248,
      "bsp": 5249,
      ".ToString": 5250,
      "Ġdir": 5251,
      "Ġallowed": 5252,
      "Ġimpact": 5253,
      ".config": 5254,
      "Ġelements": 5255,
      "Ġprote": 5256,
      "Ġtrain": 5257,
      ".tr": 5258,
      "rs": 5259,
      "ĠRepublic": 5260,
      "ĠTask": 5261,
      "aries": 5262,
      "(D": 5263,
      "(get": 5264,
      "Ġrelated": 5265,
      "Ġvers": 5266,
      "Ġsil": 5267,
      "Ġcmd": 5268,
      "Ġtechnology": 5269,
      ".width": 5270,
      "Float": 5271,
      "ĠUse": 5272,
      "Body": 5273,
      "should": 5274,
      ".join": 5275,
      "Font": 5276,
      "llum": 5277,
      "ycle": 5278,
      "ĠBrit": 5279,
      "Ġmit": 5280,
      "Ġscale": 5281,
      "Ġ(_": 5282,
      "ernel": 5283,
      "Ġscore": 5284,
      "/v": 5285,
      "Ġstudent": 5286,
      "UC": 5287,
      ".show": 5288,
      "Ġaverage": 5289,
      "Enabled": 5290,
      "(ex": 5291,
      "common": 5292,
      "imation": 5293,
      ":@\"": 5294,
      "chie": 5295,
      "river": 5296,
      "ĠMarch": 5297,
      "category": 5298,
      "fin": 5299,
      "Ġcourt": 5300,
      "Ð²": 5301,
      "Server": 5302,
      "Ġcontainer": 5303,
      "-st": 5304,
      "_for": 5305,
      "Ġparts": 5306,
      "Ġdecision": 5307,
      "obs": 5308,
      "oub": 5309,
      "mitted": 5310,
      "Ġ$('#": 5311,
      "Ġsaw": 5312,
      "Ġapproach": 5313,
      "ICE": 5314,
      "Ġsaying": 5315,
      "Ġanyone": 5316,
      "meta": 5317,
      "SD": 5318,
      "Ġsong": 5319,
      "display": 5320,
      "Oper": 5321,
      "outes": 5322,
      "Ġchannel": 5323,
      "Ġchanged": 5324,
      "Ãª": 5325,
      "Ġfinally": 5326,
      "_number": 5327,
      "Please": 5328,
      "à¤": 5329,
      "oring": 5330,
      "-re": 5331,
      "Ġkill": 5332,
      "Ġdrug": 5333,
      "window": 5334,
      "Ġconvert": 5335,
      "ombre": 5336,
      "Ġways": 5337,
      "Helper": 5338,
      "ĠFirst": 5339,
      "(__": 5340,
      "urity": 5341,
      "ĠWindows": 5342,
      "ees": 5343,
      "Ġmat": 5344,
      "rapper": 5345,
      "Ġplus": 5346,
      "anges": 5347,
      "\"].": 5348,
      "azon": 5349,
      "/t": 5350,
      "lat": 5351,
      "aste": 5352,
      "Ġprofile": 5353,
      "Ġready": 5354,
      "#ifndef": 5355,
      "rote": 5356,
      "Ġsense": 5357,
      "Gener": 5358,
      "ĠConfig": 5359,
      "omy": 5360,
      "ĠJune": 5361,
      "Ġlatest": 5362,
      "Ġsaf": 5363,
      "Ġregion": 5364,
      "Ġdeep": 5365,
      "witch": 5366,
      "ĠPark": 5367,
      "}`": 5368,
      "ĠFrom": 5369,
      "II": 5370,
      "Ġcv": 5371,
      "Ġreach": 5372,
      "Ġcounter": 5373,
      "ĠWork": 5374,
      "ĠURL": 5375,
      "ĠUpdate": 5376,
      "Ġimmedi": 5377,
      "close": 5378,
      "ados": 5379,
      "ferred": 5380,
      "Ġweeks": 5381,
      "urg": 5382,
      "Ġdamage": 5383,
      "Ġlost": 5384,
      "ani": 5385,
      "_lo": 5386,
      "Ġhimself": 5387,
      "Ġdog": 5388,
      "ï¿": 5389,
      "pir": 5390,
      "tt": 5391,
      "Ġpaper": 5392,
      "Ġthems": 5393,
      "second": 5394,
      "Ġstaff": 5395,
      "ĠInput": 5396,
      "\"+": 5397,
      "ĠFacebook": 5398,
      "Ġalloc": 5399,
      "Ġsched": 5400,
      "ACE": 5401,
      "Ġthemselves": 5402,
      "ĠComponent": 5403,
      "Ġdriver": 5404,
      "ja": 5405,
      "(path": 5406,
      "Ġcategory": 5407,
      "alls": 5408,
      "pu": 5409,
      "lluminate": 5410,
      "ĠAction": 5411,
      ".button": 5412,
      "ĠGL": 5413,
      "istics": 5414,
      "Ġoil": 5415,
      "Ġstock": 5416,
      ">'": 5417,
      "Ġdead": 5418,
      "VAL": 5419,
      "QUE": 5420,
      "************************************************************************": 5421,
      "Ġcharg": 5422,
      "Return": 5423,
      "Ġful": 5424,
      "dom": 5425,
      "Ġrules": 5426,
      "Ġmodify": 5427,
      "Ġeval": 5428,
      "ham": 5429,
      "atement": 5430,
      "\\<": 5431,
      "ula": 5432,
      "=False": 5433,
      "RA": 5434,
      "Ġcontains": 5435,
      "Ġstack": 5436,
      "mar": 5437,
      "Ġundefined": 5438,
      "Ass": 5439,
      "ĠChina": 5440,
      "vey": 5441,
      "Ġplaying": 5442,
      ")/": 5443,
      "actor": 5444,
      "Ġbottom": 5445,
      "lier": 5446,
      "ĠNumber": 5447,
      "Ġcouple": 5448,
      "DC": 5449,
      "ĠSO": 5450,
      "gor": 5451,
      ".setText": 5452,
      "success": 5453,
      "command": 5454,
      "Filter": 5455,
      "ĠOur": 5456,
      "_item": 5457,
      "Ġctx": 5458,
      "Ġroad": 5459,
      "Version": 5460,
      "case": 5461,
      "urt": 5462,
      "avior": 5463,
      "ych": 5464,
      "sembly": 5465,
      "ĠProduct": 5466,
      "Ġheld": 5467,
      "afe": 5468,
      "Ġincludes": 5469,
      "<quote": 5470,
      "Ġavoid": 5471,
      "ĠFin": 5472,
      "ĠMod": 5473,
      "Ġtab": 5474,
      "ano": 5475,
      "Ã±": 5476,
      "ipping": 5477,
      "-e": 5478,
      "Ġinsert": 5479,
      "target": 5480,
      "chan": 5481,
      ".Model": 5482,
      "IME": 5483,
      "Ġmachine": 5484,
      "avy": 5485,
      "ĠNO": 5486,
      "ĠInter": 5487,
      "Ġoperation": 5488,
      "modal": 5489,
      "Tag": 5490,
      "]:": 5491,
      "Ġproduction": 5492,
      "Ġareas": 5493,
      "Ġren": 5494,
      "_from": 5495,
      "nbsp": 5496,
      "Ġoperator": 5497,
      "men": 5498,
      "apped": 5499,
      "_per": 5500,
      "zen": 5501,
      "(\".": 5502,
      ".save": 5503,
      "=\"{{": 5504,
      "Ġtor": 5505,
      "(response": 5506,
      "Ġcandid": 5507,
      "Ġconv": 5508,
      "ailed": 5509,
      "ĠLib": 5510,
      "comp": 5511,
      "ura": 5512,
      "ï¿½": 5513,
      "ĠHere": 5514,
      "Ġargument": 5515,
      "hood": 5516,
      "Ġestablish": 5517,
      "ography": 5518,
      "ĠonClick": 5519,
      "ambda": 5520,
      "Ġsch": 5521,
      "Ġmovie": 5522,
      "Ġsec": 5523,
      "Ġactivity": 5524,
      "Ø§": 5525,
      "Ġsql": 5526,
      "_all": 5527,
      "incip": 5528,
      "Ġprovides": 5529,
      "Ġsys": 5530,
      "acket": 5531,
      "Ġwasn": 5532,
      "Ġuses": 5533,
      "ĠFunction": 5534,
      ".google": 5535,
      "ĠResult": 5536,
      "Visible": 5537,
      "agma": 5538,
      "elcome": 5539,
      "ĠSy": 5540,
      "ĠCent": 5541,
      "ALSE": 5542,
      "aciÃ³n": 5543,
      "EXT": 5544,
      "Ġlicense": 5545,
      "ĠLong": 5546,
      "Ġaccom": 5547,
      "Ġability": 5548,
      ".height": 5549,
      "Active": 5550,
      "ological": 5551,
      "oly": 5552,
      ")),": 5553,
      ".Se": 5554,
      "Ġparameter": 5555,
      "prite": 5556,
      "ABILITY": 5557,
      ".service": 5558,
      "ĠGroup": 5559,
      "_query": 5560,
      "ĠItem": 5561,
      "ining": 5562,
      "Ġjud": 5563,
      "ims": 5564,
      "fix": 5565,
      "inder": 5566,
      "agram": 5567,
      "Ġfunctions": 5568,
      "Ġexperi": 5569,
      "ĠEm": 5570,
      "Ġrot": 5571,
      "Ġpen": 5572,
      ".btn": 5573,
      "ĠAS": 5574,
      "#ifdef": 5575,
      "Ġchoice": 5576,
      "ĠPage": 5577,
      "_PRO": 5578,
      "QU": 5579,
      "antity": 5580,
      "ÂŃ": 5581,
      "words": 5582,
      "Ġreadonly": 5583,
      "Ġflex": 5584,
      "protected": 5585,
      "ĠAny": 5586,
      "Ġcharacters": 5587,
      "enced": 5588,
      "ĠJuly": 5589,
      "iler": 5590,
      "Card": 5591,
      "urance": 5592,
      "Ġrev": 5593,
      ".event": 5594,
      "aly": 5595,
      "Ġwonder": 5596,
      "ĠPort": 5597,
      "Ġlegal": 5598,
      "role": 5599,
      "Ġten": 5600,
      "Ġgoes": 5601,
      "MP": 5602,
      "white": 5603,
      "Ġreference": 5604,
      "Ġmis": 5605,
      "ĠProject": 5606,
      "icks": 5607,
      ">&": 5608,
      "CON": 5609,
      "Ġrepl": 5610,
      "Ġregular": 5611,
      "Storage": 5612,
      "ramework": 5613,
      "Ġgoal": 5614,
      "Ġtouch": 5615,
      ".widget": 5616,
      "Ġbuilt": 5617,
      "des": 5618,
      "Part": 5619,
      "(re": 5620,
      "Ġworth": 5621,
      "hib": 5622,
      "game": 5623,
      "ĠÐ²": 5624,
      "acion": 5625,
      "ĠWhite": 5626,
      "(type": 5627,
      "(`": 5628,
      "Ġnatural": 5629,
      "Ġinj": 5630,
      "Ġcalcul": 5631,
      "ĠApril": 5632,
      ".List": 5633,
      "Ġassociated": 5634,
      "ĉSystem": 5635,
      "~~": 5636,
      "=[": 5637,
      "Ġstorage": 5638,
      "Ġbytes": 5639,
      "Ġtravel": 5640,
      "Ġsou": 5641,
      "Ġpassed": 5642,
      "!=": 5643,
      "ascript": 5644,
      ".open": 5645,
      "Ġgrid": 5646,
      "Ġbus": 5647,
      "Ġrecogn": 5648,
      "Ab": 5649,
      "Ġhon": 5650,
      "ĠCenter": 5651,
      "Ġprec": 5652,
      "build": 5653,
      "HTML": 5654,
      "ĠSan": 5655,
      "Ġcountries": 5656,
      "aled": 5657,
      "token": 5658,
      "kt": 5659,
      "Ġqual": 5660,
      "Last": 5661,
      "adow": 5662,
      "Ġmanufact": 5663,
      "idad": 5664,
      "jango": 5665,
      "Next": 5666,
      "xf": 5667,
      ".a": 5668,
      "Ġporno": 5669,
      "ĠPM": 5670,
      "erve": 5671,
      "iting": 5672,
      "_th": 5673,
      "ci": 5674,
      "=None": 5675,
      "gs": 5676,
      "Ġlogin": 5677,
      "atives": 5678,
      "Äħ": 5679,
      "Ġill": 5680,
      "IA": 5681,
      "children": 5682,
      "DO": 5683,
      "Ġlevels": 5684,
      "Ġ{{": 5685,
      "Ġlooks": 5686,
      "Ġ\"#": 5687,
      "ToString": 5688,
      "Ġnecessary": 5689,
      "ĠĠĠĊ": 5690,
      "cell": 5691,
      "Entry": 5692,
      "Ġ'#": 5693,
      "Ġextrem": 5694,
      "Selector": 5695,
      "Ġplaceholder": 5696,
      "Load": 5697,
      "Ġreleased": 5698,
      "ORE": 5699,
      "Enumer": 5700,
      "ĠTV": 5701,
      "SET": 5702,
      "inq": 5703,
      "Press": 5704,
      "ĠDepartment": 5705,
      "Ġproperties": 5706,
      "Ġrespond": 5707,
      "Search": 5708,
      "ael": 5709,
      "Ġrequ": 5710,
      "ĠBook": 5711,
      "(st": 5712,
      "Ġfinancial": 5713,
      "icket": 5714,
      "_input": 5715,
      "Ġthreat": 5716,
      "(in": 5717,
      "Strip": 5718,
      "ìĿ": 5719,
      "Ã§Ã£o": 5720,
      "Ġevidence": 5721,
      "));": 5722,
      "ĠBro": 5723,
      "Ġou": 5724,
      "buf": 5725,
      "Script": 5726,
      "dat": 5727,
      "Ġrule": 5728,
      "#import": 5729,
      "=\"/": 5730,
      "Serial": 5731,
      "Ġstarting": 5732,
      "[index": 5733,
      "ae": 5734,
      "Ġcontrib": 5735,
      "session": 5736,
      "_new": 5737,
      "utable": 5738,
      "ober": 5739,
      "Ġ\"./": 5740,
      "Ġlogger": 5741,
      "Ġrecently": 5742,
      "Ġreturned": 5743,
      "ččĊ": 5744,
      "itions": 5745,
      "Ġseek": 5746,
      "Ġcommunic": 5747,
      "Ġ\".": 5748,
      "Ġusername": 5749,
      "ECT": 5750,
      "DS": 5751,
      "Ġotherwise": 5752,
      "ĠGerman": 5753,
      ".aw": 5754,
      "Adapter": 5755,
      "ixel": 5756,
      "Ġsystems": 5757,
      "Ġdrop": 5758,
      "Ġstructure": 5759,
      "Ġ$(\"#": 5760,
      "encies": 5761,
      "anning": 5762,
      "ĠLink": 5763,
      "ĠResponse": 5764,
      "Ġstri": 5765,
      "Å¼": 5766,
      "ĠDB": 5767,
      "android": 5768,
      "submit": 5769,
      "otion": 5770,
      "(@": 5771,
      ".test": 5772,
      "ĊĊĊĊĊĊĊĊ": 5773,
      "Ġdirectly": 5774,
      "Ġ\"%": 5775,
      "ris": 5776,
      "elta": 5777,
      "AIL": 5778,
      "mine": 5779,
      "ĠĠĠĠĠĠĠĠĠĠĠĠĠĠĠĠĠĠĠĠĠĠĠĠĠĠ": 5780,
      "(k": 5781,
      "bon": 5782,
      "asic": 5783,
      "pite": 5784,
      "___": 5785,
      "Max": 5786,
      "Ġerrors": 5787,
      "ĠWhile": 5788,
      "Ġarguments": 5789,
      "Ġensure": 5790,
      "Right": 5791,
      "-based": 5792,
      "Web": 5793,
      "Ġ-=": 5794,
      "Ġintrodu": 5795,
      "ĠInst": 5796,
      "ĠWash": 5797,
      "ordin": 5798,
      "join": 5799,
      "Database": 5800,
      "Ġgrad": 5801,
      "Ġusually": 5802,
      "ITE": 5803,
      "Props": 5804,
      "ĠGo": 5805,
      "@Override": 5806,
      "REF": 5807,
      "Ġip": 5808,
      "ĠAustral": 5809,
      "Ġist": 5810,
      "ViewById": 5811,
      "Ġserious": 5812,
      "Ġcustomer": 5813,
      ".prototype": 5814,
      "odo": 5815,
      "cor": 5816,
      "Ġdoor": 5817,
      "ĠWITHOUT": 5818,
      "Ġplant": 5819,
      "Ġbegan": 5820,
      "Ġdistance": 5821,
      "()).": 5822,
      "Ġchance": 5823,
      "Ġord": 5824,
      "came": 5825,
      "pragma": 5826,
      "Ġprotect": 5827,
      "ragment": 5828,
      "ĠNode": 5829,
      "ening": 5830,
      "Ñĩ": 5831,
      "Ġroute": 5832,
      "ĠSchool": 5833,
      "hi": 5834,
      "Ġneighb": 5835,
      "After": 5836,
      "licit": 5837,
      "Ġcontr": 5838,
      "Ġprimary": 5839,
      "AA": 5840,
      ".WriteLine": 5841,
      "utils": 5842,
      "Ġbi": 5843,
      "Red": 5844,
      ".Linq": 5845,
      ".object": 5846,
      "Ġleaders": 5847,
      "unities": 5848,
      "Ġgun": 5849,
      "onth": 5850,
      "ĠDev": 5851,
      "FILE": 5852,
      "Ġcomments": 5853,
      "_len": 5854,
      "arrow": 5855,
      "amount": 5856,
      "Range": 5857,
      "sert": 5858,
      "GridView": 5859,
      "Ġupdated": 5860,
      "ĠMo": 5861,
      "Ġinform": 5862,
      "ociety": 5863,
      "ala": 5864,
      "Access": 5865,
      "Ġhab": 5866,
      "Ġcreat": 5867,
      "_arg": 5868,
      "ĠJanuary": 5869,
      "ĠDay": 5870,
      "uple": 5871,
      "document": 5872,
      "gorith": 5873,
      "menu": 5874,
      "ĠOver": 5875,
      "bb": 5876,
      ".title": 5877,
      "_out": 5878,
      "Ġled": 5879,
      "uri": 5880,
      "Ġ?></": 5881,
      "gl": 5882,
      "Ġbank": 5883,
      "ayment": 5884,
      "ĉprintf": 5885,
      "MD": 5886,
      "Ġsample": 5887,
      "Ġhands": 5888,
      "ĠVersion": 5889,
      "uario": 5890,
      "Ġoffers": 5891,
      "ityEngine": 5892,
      "Ġshape": 5893,
      "Ġsleep": 5894,
      "_point": 5895,
      "Settings": 5896,
      "Ġachie": 5897,
      "Ġsold": 5898,
      "ota": 5899,
      ".bind": 5900,
      "Am": 5901,
      "Ġsafe": 5902,
      "Store": 5903,
      "Ġshared": 5904,
      "Ġpriv": 5905,
      "_VAL": 5906,
      "Ġsens": 5907,
      "){": 5908,
      "Ġremember": 5909,
      "shared": 5910,
      "element": 5911,
      "Ġshoot": 5912,
      "Vert": 5913,
      "cout": 5914,
      "Ġenv": 5915,
      "_label": 5916,
      "run": 5917,
      "Ġscene": 5918,
      "(array": 5919,
      "device": 5920,
      "_title": 5921,
      "agon": 5922,
      "aby": 5923,
      "Ġbecame": 5924,
      "boolean": 5925,
      "Ġpark": 5926,
      "ĠCode": 5927,
      "upload": 5928,
      "riday": 5929,
      "ĠSeptember": 5930,
      "Fe": 5931,
      "Ġsen": 5932,
      "cing": 5933,
      "FL": 5934,
      "Col": 5935,
      "uts": 5936,
      "_page": 5937,
      "inn": 5938,
      "Ġimplied": 5939,
      "aling": 5940,
      "Ġyourself": 5941,
      ".Count": 5942,
      "conf": 5943,
      "Ġaud": 5944,
      "_init": 5945,
      ".)": 5946,
      "Ġwrote": 5947,
      "NG": 5948,
      ".Error": 5949,
      ".for": 5950,
      "Ġequal": 5951,
      "ĠRequest": 5952,
      "Ġserial": 5953,
      "Ġallows": 5954,
      "XX": 5955,
      "Ġmiddle": 5956,
      "chor": 5957,
      "Ã¸": 5958,
      "erval": 5959,
      ".Column": 5960,
      "reading": 5961,
      "Ġescort": 5962,
      "ĠAugust": 5963,
      "Ġquickly": 5964,
      "Ġweap": 5965,
      "ĠCG": 5966,
      "ropri": 5967,
      "ho": 5968,
      "Ġcop": 5969,
      "(struct": 5970,
      "ĠBig": 5971,
      "Ġvs": 5972,
      "Ġfrequ": 5973,
      ".Value": 5974,
      "Ġactions": 5975,
      "Ġproper": 5976,
      "Ġinn": 5977,
      "Ġobjects": 5978,
      "Ġmatrix": 5979,
      "avascript": 5980,
      "Ġones": 5981,
      ".group": 5982,
      "Ġgreen": 5983,
      "Ġpaint": 5984,
      "ools": 5985,
      "ycl": 5986,
      "encode": 5987,
      "olt": 5988,
      "comment": 5989,
      ".api": 5990,
      "Dir": 5991,
      "Ġune": 5992,
      "izont": 5993,
      ".position": 5994,
      "Ġdesigned": 5995,
      "_val": 5996,
      "avi": 5997,
      "iring": 5998,
      "tab": 5999,
      "Ġlayer": 6000,
      "Ġviews": 6001,
      "Ġreve": 6002,
      "rael": 6003,
      "ĠON": 6004,
      "rics": 6005,
      "np": 6006,
      "Ġcore": 6007,
      "Main": 6008,
      "Ġexpert": 6009,
      "ĉĉčĊ": 6010,
      "_en": 6011,
      "Ġ/>": 6012,
      "utter": 6013,
      "IAL": 6014,
      "ails": 6015,
      "ĠKing": 6016,
      "ĠMet": 6017,
      "_end": 6018,
      "addr": 6019,
      "ora": 6020,
      "Ġir": 6021,
      "Min": 6022,
      "Ġsurpr": 6023,
      "Ġrepe": 6024,
      "Ġdirectory": 6025,
      "PUT": 6026,
      "-S": 6027,
      "Ġelection": 6028,
      "haps": 6029,
      ".pre": 6030,
      "cm": 6031,
      "Values": 6032,
      "column": 6033,
      "ivil": 6034,
      "Login": 6035,
      "inue": 6036,
      "Ġbeautiful": 6037,
      "Ġsecret": 6038,
      "(event": 6039,
      "Ġchat": 6040,
      "ums": 6041,
      "Ġorigin": 6042,
      "Ġeffects": 6043,
      "Ġmanagement": 6044,
      "illa": 6045,
      "tk": 6046,
      "Ġsetting": 6047,
      "ĠCour": 6048,
      "Ġmassage": 6049,
      "ĉend": 6050,
      "Ġhappy": 6051,
      "Ġfinish": 6052,
      "Ġcamera": 6053,
      "ĠVer": 6054,
      "ĠDemocr": 6055,
      "ĠHer": 6056,
      "(Q": 6057,
      "cons": 6058,
      "ita": 6059,
      "Ġ'.": 6060,
      "{}": 6061,
      "ĉC": 6062,
      "Ġstuff": 6063,
      "ĠAR": 6064,
      "Task": 6065,
      "hidden": 6066,
      "eros": 6067,
      "IGN": 6068,
      "atio": 6069,
      "ĠHealth": 6070,
      "olute": 6071,
      "Enter": 6072,
      "'>": 6073,
      "ĠTwitter": 6074,
      "ĠCounty": 6075,
      "scribe": 6076,
      "Ġhy": 6077,
      "fit": 6078,
      "Ġmilitary": 6079,
      "Ġsale": 6080,
      "required": 6081,
      "non": 6082,
      "bootstrap": 6083,
      "hold": 6084,
      "rim": 6085,
      "-old": 6086,
      "ĠDown": 6087,
      "Ġmention": 6088,
      "contact": 6089,
      "_group": 6090,
      "oday": 6091,
      "Ġtown": 6092,
      "Ġsolution": 6093,
      "uate": 6094,
      "elling": 6095,
      "]->": 6096,
      "otes": 6097,
      "ental": 6098,
      "omen": 6099,
      "ospital": 6100,
      "ĠSup": 6101,
      "_EN": 6102,
      "Ġslow": 6103,
      "SESSION": 6104,
      "Ġblue": 6105,
      "ago": 6106,
      "Ġlives": 6107,
      "Ġ^": 6108,
      ".un": 6109,
      "inst": 6110,
      "enge": 6111,
      "Ġcustomers": 6112,
      "Ġcast": 6113,
      "udget": 6114,
      "ï¼ģ": 6115,
      "icens": 6116,
      "Ġdetermin": 6117,
      "Selected": 6118,
      "_pl": 6119,
      "ueue": 6120,
      "Ġdark": 6121,
      "si": 6122,
      "thern": 6123,
      "ĠJapan": 6124,
      "/w": 6125,
      "PU": 6126,
      "ĠEast": 6127,
      "ovie": 6128,
      "Ġpackage": 6129,
      "Ġnor": 6130,
      "Ġapi": 6131,
      "bot": 6132,
      "_post": 6133,
      "ulate": 6134,
      "Ġclub": 6135,
      "Ġloop": 6136,
      "PIO": 6137,
      "ione": 6138,
      "shot": 6139,
      "Initial": 6140,
      "Ġplayed": 6141,
      "register": 6142,
      "rought": 6143,
      "_max": 6144,
      "acement": 6145,
      "match": 6146,
      "raphics": 6147,
      "AST": 6148,
      "Ġexisting": 6149,
      "Ġcomplex": 6150,
      "DA": 6151,
      ".Ch": 6152,
      ".common": 6153,
      "mo": 6154,
      "Ġ'../../": 6155,
      "ito": 6156,
      "Ġanalysis": 6157,
      "Ġdeliver": 6158,
      "ĠĠĠĠĠĠĠĠĠĠĠĠĠĠĠĠĊ": 6159,
      "idx": 6160,
      "Ãł": 6161,
      "ongo": 6162,
      "ĠEnglish": 6163,
      "<!--": 6164,
      "Ġcomputer": 6165,
      "ENSE": 6166,
      "Ġpas": 6167,
      "Ġrais": 6168,
      "Hash": 6169,
      "Ġmobile": 6170,
      "Ġowner": 6171,
      "FIG": 6172,
      "ĠĠĠĠĠĠĠĠĠĠĠĠĠĠĠĠĠĠĠĠĠĠĠĠĠĠĠĠĠĠĠĠĠĠĠĠĠĠĠĠĠĠĠĠĠĠĠĠĠĠĠ": 6173,
      "thes": 6174,
      "Ġattr": 6175,
      "wd": 6176,
      ".time": 6177,
      "awn": 6178,
      "Ġtreatment": 6179,
      "ĠAc": 6180,
      ".View": 6181,
      "impl": 6182,
      "more": 6183,
      "pass": 6184,
      "Ġha": 6185,
      ".from": 6186,
      "Ġleading": 6187,
      "FFFF": 6188,
      "(error": 6189,
      ".ui": 6190,
      "atar": 6191,
      "aders": 6192,
      "dates": 6193,
      "Ġzu": 6194,
      "Ġflow": 6195,
      "Target": 6196,
      "Ġinvolved": 6197,
      "Ġio": 6198,
      "parse": 6199,
      "$_": 6200,
      "hest": 6201,
      ".int": 6202,
      "-item": 6203,
      "asy": 6204,
      "Sp": 6205,
      "Ġshift": 6206,
      "NT": 6207,
      "Ġtf": 6208,
      "_TR": 6209,
      ".web": 6210,
      "CS": 6211,
      "Ġ})": 6212,
      "Ġeyes": 6213,
      "_z": 6214,
      "iforn": 6215,
      "Ġ{@": 6216,
      "Ġnice": 6217,
      ".list": 6218,
      "ĠĠĠĠčĊ": 6219,
      "Ġfloor": 6220,
      "Ġredirect": 6221,
      "ĠUK": 6222,
      "(['": 6223,
      "Ġwish": 6224,
      "Ġcapt": 6225,
      "legal": 6226,
      "ĠIO": 6227,
      "Ġstage": 6228,
      ".String": 6229,
      "ĠAfr": 6230,
      "igen": 6231,
      "ĠSH": 6232,
      "Delete": 6233,
      "ells": 6234,
      "Ġsolid": 6235,
      "Ġmeeting": 6236,
      "Ġworked": 6237,
      "Ġeditor": 6238,
      "iny": 6239,
      "Ð¼": 6240,
      "_read": 6241,
      ".Id": 6242,
      "eff": 6243,
      "Offset": 6244,
      "cha": 6245,
      "USER": 6246,
      "ĉĉĠĠĠ": 6247,
      "ipped": 6248,
      "Ġdict": 6249,
      "ĠRun": 6250,
      ".hpp": 6251,
      "Ġang": 6252,
      "xml": 6253,
      "imple": 6254,
      "Ġmedical": 6255,
      "_token": 6256,
      "connect": 6257,
      "Ġhour": 6258,
      "Ġcontroller": 6259,
      "_message": 6260,
      "UID": 6261,
      "Gr": 6262,
      "anded": 6263,
      "_CH": 6264,
      "Ġbooks": 6265,
      "Ġspeak": 6266,
      "aming": 6267,
      "Ġmount": 6268,
      "Record": 6269,
      "ĉstruct": 6270,
      ".Web": 6271,
      "ondon": 6272,
      "Ġfelt": 6273,
      ".Auto": 6274,
      "idge": 6275,
      "_pos": 6276,
      "PR": 6277,
      "Ġmodern": 6278,
      "Collection": 6279,
      "_msg": 6280,
      "CD": 6281,
      "ĠLo": 6282,
      "Ġseconds": 6283,
      "ibly": 6284,
      ".equals": 6285,
      "Ġinternational": 6286,
      "#pragma": 6287,
      "ooth": 6288,
      "Writer": 6289,
      "iate": 6290,
      "Ġcele": 6291,
      "ĠBit": 6292,
      "ivo": 6293,
      "ivery": 6294,
      "rd": 6295,
      "HECK": 6296,
      "Ġcache": 6297,
      ".count": 6298,
      "Ġroll": 6299,
      ".Read": 6300,
      "RED": 6301,
      "Ġsetup": 6302,
      "izontal": 6303,
      "models": 6304,
      "argv": 6305,
      "Ġconsidered": 6306,
      "=\"../": 6307,
      "settings": 6308,
      "ĠRel": 6309,
      "Ġgrowth": 6310,
      "Ġmix": 6311,
      "ĠWashington": 6312,
      "Ġplt": 6313,
      "ĠIM": 6314,
      "áº": 6315,
      "Ġturned": 6316,
      "ĠDateTime": 6317,
      "ĠWed": 6318,
      "(url": 6319,
      "Ġ\"-": 6320,
      "Ġletter": 6321,
      "Async": 6322,
      "ĠĠĠĠĠĠĠĠĠĠĠĠĠĠĠĠĠĠĠĠĠĠĠĠĠĠĠĠ": 6323,
      "ĠOctober": 6324,
      "_line": 6325,
      "Ġattention": 6326,
      "Ġcollect": 6327,
      "ĠHash": 6328,
      "Ġimag": 6329,
      "Tree": 6330,
      "Ġsituation": 6331,
      "ette": 6332,
      "_no": 6333,
      "IVE": 6334,
      "Ġvon": 6335,
      ".target": 6336,
      "Ġknowledge": 6337,
      "Ġdrive": 6338,
      ".post": 6339,
      "Ġblood": 6340,
      "Ġcit": 6341,
      "primary": 6342,
      "Ġconfiguration": 6343,
      "tee": 6344,
      "Ġphoto": 6345,
      "isode": 6346,
      "Trace": 6347,
      "Ġgave": 6348,
      "Ġshot": 6349,
      "ĠAir": 6350,
      "Ġmother": 6351,
      "price": 6352,
      "Ġmorning": 6353,
      "-x": 6354,
      "Ġtrade": 6355,
      "Ġdesc": 6356,
      "Ġparents": 6357,
      "Api": 6358,
      "ted": 6359,
      "wer": 6360,
      "Ġsy": 6361,
      "ĠKe": 6362,
      "Parser": 6363,
      "ancy": 6364,
      "Ġpiece": 6365,
      "ifornia": 6366,
      "toString": 6367,
      "ran": 6368,
      "iding": 6369,
      "PTION": 6370,
      "comes": 6371,
      "/lic": 6372,
      ".client": 6373,
      "El": 6374,
      "Long": 6375,
      "Ġprofessional": 6376,
      "rupt": 6377,
      "va": 6378,
      "Ġcompletely": 6379,
      "Ġpractice": 6380,
      "Ġselection": 6381,
      "Rem": 6382,
      "ini": 6383,
      "Ġcam": 6384,
      "REE": 6385,
      "Ġsites": 6386,
      "pa": 6387,
      "ATUS": 6388,
      "ÑģÑĤ": 6389,
      "arrant": 6390,
      "*(": 6391,
      "_KEY": 6392,
      "ĠButton": 6393,
      "ĠFriday": 6394,
      "sequ": 6395,
      "Ġreader": 6396,
      "Ġmessages": 6397,
      "Ġbuf": 6398,
      "Ke": 6399,
      "Ġnov": 6400,
      "HP": 6401,
      "Msg": 6402,
      "align": 6403,
      "arily": 6404,
      "Ġ',": 6405,
      "_with": 6406,
      "Ġdas": 6407,
      "Ġheard": 6408,
      "atomic": 6409,
      "rial": 6410,
      ")[": 6411,
      "Ġdise": 6412,
      "@end": 6413,
      "Ġgold": 6414,
      "Ġfair": 6415,
      "Ġsales": 6416,
      ".Button": 6417,
      "strict": 6418,
      "save": 6419,
      "Ġmeasure": 6420,
      "Ġ\"+": 6421,
      "ecause": 6422,
      "ViewController": 6423,
      "ĠTable": 6424,
      ".param": 6425,
      "Ġdecided": 6426,
      "(((": 6427,
      "INFO": 6428,
      "Ġopportunity": 6429,
      "Te": 6430,
      "ICENSE": 6431,
      "ccording": 6432,
      "ki": 6433,
      "ĠUN": 6434,
      "Ġcontain": 6435,
      "Ġmanager": 6436,
      "Ġpain": 6437,
      "ĠFire": 6438,
      "rome": 6439,
      "Ġplans": 6440,
      "Found": 6441,
      "lay": 6442,
      "ĠDecember": 6443,
      "Ġinflu": 6444,
      "Ãº": 6445,
      "rench": 6446,
      "ĠĠĠĠĠĠĠĠĠĠĠĠĠĠĠĠĠĠĠĠĠĠĠĠĠĠĠĠĠĠĠĠĠ": 6447,
      "azing": 6448,
      "brief": 6449,
      "call": 6450,
      "wood": 6451,
      "Ġloaded": 6452,
      "Ġgrand": 6453,
      "/f": 6454,
      "imp": 6455,
      "_U": 6456,
      "STR": 6457,
      "âĢ¢": 6458,
      "Ġcredit": 6459,
      ".Color": 6460,
      "orge": 6461,
      "QUEST": 6462,
      "Ġdifference": 6463,
      "ĠPC": 6464,
      "wargs": 6465,
      "Ġpub": 6466,
      "unday": 6467,
      "Ġfra": 6468,
      ".max": 6469,
      "Ġtried": 6470,
      "annels": 6471,
      "send": 6472,
      "Ġreports": 6473,
      "Ġadult": 6474,
      "Ġconsist": 6475,
      "ĠStreet": 6476,
      "ĠProgram": 6477,
      "SQL": 6478,
      "Matrix": 6479,
      "ouncil": 6480,
      "-A": 6481,
      "ĉw": 6482,
      "Ġwhose": 6483,
      "Ġrelig": 6484,
      "ĠSex": 6485,
      "Ġgives": 6486,
      "none": 6487,
      ".message": 6488,
      "(G": 6489,
      ".awt": 6490,
      "-right": 6491,
      "ĠNovember": 6492,
      "ellig": 6493,
      "utive": 6494,
      "Äĥ": 6495,
      "overn": 6496,
      "Ġeasily": 6497,
      "Ġideas": 6498,
      "ĠÐ½": 6499,
      "/css": 6500,
      "lying": 6501,
      "elle": 6502,
      "Can": 6503,
      "_color": 6504,
      "Ġpair": 6505,
      "ngth": 6506,
      "Ġsplit": 6507,
      "drop": 6508,
      "arty": 6509,
      "ona": 6510,
      "Ġcapital": 6511,
      "Ġhear": 6512,
      "Ġexists": 6513,
      "ĉlog": 6514,
      "emo": 6515,
      "Run": 6516,
      "oi": 6517,
      "Ġparser": 6518,
      "ĠMethod": 6519,
      "Ġeducation": 6520,
      "[k": 6521,
      "Ġlibrary": 6522,
      "_UN": 6523,
      "ĉstd": 6524,
      "oded": 6525,
      "Ġcalls": 6526,
      "here": 6527,
      "Rel": 6528,
      "Ġbrand": 6529,
      "background": 6530,
      "ga": 6531,
      "_address": 6532,
      "_params": 6533,
      "Category": 6534,
      "ĠIndia": 6535,
      "_event": 6536,
      "Ġing": 6537,
      "Render": 6538,
      ".cl": 6539,
      "umpy": 6540,
      "Ġpet": 6541,
      "FC": 6542,
      "ĠAnt": 6543,
      "Ext": 6544,
      "Ġcharge": 6545,
      "ened": 6546,
      "grad": 6547,
      "EO": 6548,
      "Ġdepend": 6549,
      "frame": 6550,
      "Ġdf": 6551,
      "Ġhuge": 6552,
      "ĠPART": 6553,
      "eds": 6554,
      ";;": 6555,
      "ĠAM": 6556,
      "Ġbasic": 6557,
      "ĠLet": 6558,
      "lich": 6559,
      "Ġarm": 6560,
      "Ġstar": 6561,
      "Ġfederal": 6562,
      "Work": 6563,
      "Ġcarry": 6564,
      "ĠIsrael": 6565,
      "(obj": 6566,
      "={{": 6567,
      "Ġsaved": 6568,
      "Ġsyn": 6569,
      "Ġconstant": 6570,
      "VENT": 6571,
      "Ġpositive": 6572,
      "Ġconduct": 6573,
      "Ġskin": 6574,
      "Ġearlier": 6575,
      "Ġlayout": 6576,
      "ĠIP": 6577,
      "OUR": 6578,
      "Ġtim": 6579,
      "stylesheet": 6580,
      "_cl": 6581,
      "ĠCard": 6582,
      "Ġtemper": 6583,
      "ĠDavid": 6584,
      "ĉtry": 6585,
      ".dart": 6586,
      "Ġwants": 6587,
      "Ġpicture": 6588,
      "Ġvideos": 6589,
      "ĠComm": 6590,
      "isions": 6591,
      "_MAX": 6592,
      "Mapping": 6593,
      "-content": 6594,
      "ĠEar": 6595,
      "-de": 6596,
      "Ġprem": 6597,
      "bruary": 6598,
      "Ġcomponents": 6599,
      "Ġthroughout": 6600,
      "Ġpull": 6601,
      "Ġpages": 6602,
      "ente": 6603,
      "respond": 6604,
      "Ġgas": 6605,
      "criptor": 6606,
      "Ġedge": 6607,
      "Ġbound": 6608,
      "ACT": 6609,
      "******": 6610,
      "Ġcreating": 6611,
      "ĠCH": 6612,
      "Ġnullptr": 6613,
      "Br": 6614,
      "+'": 6615,
      ".co": 6616,
      ">::": 6617,
      "Ġlearning": 6618,
      ".Length": 6619,
      "_SH": 6620,
      "Ġpatients": 6621,
      "AIN": 6622,
      "Ġkids": 6623,
      "Ġcomfort": 6624,
      "Ġshown": 6625,
      "ugins": 6626,
      "ĠBack": 6627,
      "ella": 6628,
      "_CL": 6629,
      "Ġlat": 6630,
      "Ġdispatch": 6631,
      "Ġclasses": 6632,
      ".at": 6633,
      ".begin": 6634,
      "Ġsuccessful": 6635,
      "ban": 6636,
      "Ġobtain": 6637,
      "ĠSl": 6638,
      "Ġlack": 6639,
      "iterator": 6640,
      "Thread": 6641,
      "(size": 6642,
      "Ġnone": 6643,
      ".has": 6644,
      "_X": 6645,
      "sort": 6646,
      "nap": 6647,
      "pet": 6648,
      "bin": 6649,
      "ĠCanada": 6650,
      "They": 6651,
      "Ġdans": 6652,
      "ĠMat": 6653,
      "<td": 6654,
      "Ġhair": 6655,
      "Ġcu": 6656,
      "Ġlaws": 6657,
      "leted": 6658,
      "ped": 6659,
      "Ġpow": 6660,
      "Ġknew": 6661,
      "_COM": 6662,
      "_,": 6663,
      "ĠMag": 6664,
      "idents": 6665,
      "(req": 6666,
      "Ġ),": 6667,
      "-center": 6668,
      "Ġwide": 6669,
      "ĠAuthor": 6670,
      "stants": 6671,
      "Ġjobs": 6672,
      "Ġmath": 6673,
      "etimes": 6674,
      "Boolean": 6675,
      "Ġscope": 6676,
      "_is": 6677,
      "Ġmeas": 6678,
      "Ġkeys": 6679,
      "elay": 6680,
      "Ġexactly": 6681,
      "'=>'": 6682,
      "ĠPaul": 6683,
      "mas": 6684,
      "ĉprint": 6685,
      "(len": 6686,
      "fd": 6687,
      "Ġ);": 6688,
      ".Event": 6689,
      "qli": 6690,
      "irit": 6691,
      "ields": 6692,
      "oman": 6693,
      "ĠTop": 6694,
      "Ġvote": 6695,
      "Ġmask": 6696,
      "Ġtheme": 6697,
      "Ġprops": 6698,
      "Ġfine": 6699,
      "Ġwriter": 6700,
      "_offset": 6701,
      "car": 6702,
      "Ġaltern": 6703,
      "Ġcopyright": 6704,
      "Ġdestroy": 6705,
      "pper": 6706,
      "Ġgenerate": 6707,
      "pped": 6708,
      "âĢĻd": 6709,
      "ĠĠĠĠĠĠĊ": 6710,
      "make": 6711,
      "ĠShow": 6712,
      "Ġbrowser": 6713,
      "Ġfavorite": 6714,
      "Ġcareer": 6715,
      "Ġhappened": 6716,
      "(char": 6717,
      "Ġrecommend": 6718,
      "Ġliter": 6719,
      ".filter": 6720,
      "grade": 6721,
      "ĠÂ£": 6722,
      "Phone": 6723,
      "oms": 6724,
      "Ġnamed": 6725,
      "-label": 6726,
      "ipo": 6727,
      "ĠOther": 6728,
      "Ġpanel": 6729,
      "Ġrock": 6730,
      "Scale": 6731,
      "ĉassert": 6732,
      "Ð´": 6733,
      "Ġtrust": 6734,
      "front": 6735,
      "Ġdemon": 6736,
      "Ar": 6737,
      "Net": 6738,
      "Ġeconomic": 6739,
      "footer": 6740,
      "Ġrace": 6741,
      "(node": 6742,
      "ĠOption": 6743,
      "split": 6744,
      "Ġphysical": 6745,
      "ifest": 6746,
      "Ġremoved": 6747,
      ".http": 6748,
      "Ġlooked": 6749,
      "';": 6750,
      "ding": 6751,
      "gest": 6752,
      "aturday": 6753,
      "/licenses": 6754,
      "Price": 6755,
      "Ġdro": 6756,
      "Ġtowards": 6757,
      "Ġuns": 6758,
      "ĠCL": 6759,
      "ĉstatic": 6760,
      "Ġrows": 6761,
      "Ġdefine": 6762,
      ".replace": 6763,
      "Ġfather": 6764,
      "ĠDesign": 6765,
      "assign": 6766,
      "mut": 6767,
      "Device": 6768,
      "Did": 6769,
      "ometry": 6770,
      "ayload": 6771,
      "Ġhistor": 6772,
      "ĠParam": 6773,
      "ĠBoolean": 6774,
      "Ġnature": 6775,
      "Ġjs": 6776,
      "Ġnation": 6777,
      "ih": 6778,
      "Ġdiscover": 6779,
      "sem": 6780,
      "Handle": 6781,
      "ĉr": 6782,
      "ĠTechn": 6783,
      "Ġwall": 6784,
      "{$": 6785,
      "@property": 6786,
      "Ġ\"../": 6787,
      "Ġexam": 6788,
      ".draw": 6789,
      "opping": 6790,
      "Ġnearly": 6791,
      "Ġcool": 6792,
      "Ġindepend": 6793,
      "RES": 6794,
      "Ġhandler": 6795,
      "ĠMonday": 6796,
      "Ġsun": 6797,
      "Styles": 6798,
      "ously": 6799,
      "Ġĉ": 6800,
      "vest": 6801,
      "Display": 6802,
      "(y": 6803,
      "atically": 6804,
      "Ġpredict": 6805,
      "ying": 6806,
      "Ġsometimes": 6807,
      "Ġdrink": 6808,
      "Ġbul": 6809,
      "ifications": 6810,
      ".insert": 6811,
      ".reg": 6812,
      "Ġtests": 6813,
      "Alignment": 6814,
      "Ġalleg": 6815,
      "Ġattribute": 6816,
      "ĠNote": 6817,
      "Ġmyself": 6818,
      "arts": 6819,
      "Now": 6820,
      "Ġinteresting": 6821,
      "lients": 6822,
      "Ġpopulation": 6823,
      "ĠCalifornia": 6824,
      "\"I": 6825,
      "Ġgreater": 6826,
      "uesday": 6827,
      "Ġthous": 6828,
      "Ġcosts": 6829,
      "Ġlaunch": 6830,
      "\\Http": 6831,
      "ker": 6832,
      "band": 6833,
      "ĠPlay": 6834,
      "Ġband": 6835,
      ".shape": 6836,
      "esome": 6837,
      "article": 6838,
      ".rf": 6839,
      "Ġwer": 6840,
      "Ã¡s": 6841,
      "embers": 6842,
      "usr": 6843,
      "BA": 6844,
      "ican": 6845,
      "ett": 6846,
      "validate": 6847,
      "ulti": 6848,
      "Ġimmediately": 6849,
      "zer": 6850,
      "Ġfigure": 6851,
      "oes": 6852,
      "eller": 6853,
      "ircle": 6854,
      "ĠSign": 6855,
      ".db": 6856,
      "Ġrank": 6857,
      "Bytes": 6858,
      "Ġprojects": 6859,
      "_rec": 6860,
      "ULAR": 6861,
      "API": 6862,
      "ĠLine": 6863,
      "Port": 6864,
      "Ġpoll": 6865,
      "Ġgiving": 6866,
      "idence": 6867,
      "Ġplot": 6868,
      "icial": 6869,
      "Ġwarrant": 6870,
      "ITION": 6871,
      "ĠDouble": 6872,
      "Ġbillion": 6873,
      "gorithm": 6874,
      "Ġequipment": 6875,
      "DATE": 6876,
      "Ġ@\"": 6877,
      "EE": 6878,
      "Ġple": 6879,
      "iation": 6880,
      "Ġheaders": 6881,
      "Ġproced": 6882,
      ".ComponentModel": 6883,
      "ĠObama": 6884,
      "Ġpa": 6885,
      "ĠBest": 6886,
      "imately": 6887,
      ".getString": 6888,
      ".\\": 6889,
      "mploy": 6890,
      "Ġraw": 6891,
      "_block": 6892,
      "undred": 6893,
      ".GroupLayout": 6894,
      "Ġbrought": 6895,
      "NSString": 6896,
      "throw": 6897,
      "created": 6898,
      ".New": 6899,
      "_view": 6900,
      "CP": 6901,
      "eps": 6902,
      "Op": 6903,
      "Ġgratis": 6904,
      "Ġ'\"": 6905,
      "Ġinterview": 6906,
      "Ġpartial": 6907,
      "Ġaria": 6908,
      "bing": 6909,
      "Author": 6910,
      "Book": 6911,
      "ĠPat": 6912,
      "uman": 6913,
      "Users": 6914,
      "plus": 6915,
      "ĠDirect": 6916,
      "venue": 6917,
      "alpha": 6918,
      "UCCESS": 6919,
      "ĠCall": 6920,
      "imated": 6921,
      "Ġremain": 6922,
      "Ġanti": 6923,
      "ĠLondon": 6924,
      "Ġsafety": 6925,
      "POSE": 6926,
      "oles": 6927,
      "controller": 6928,
      "Byte": 6929,
      "ĠCourt": 6930,
      "ĠPhil": 6931,
      "ĠAssoci": 6932,
      "ena": 6933,
      "_STR": 6934,
      "coin": 6935,
      "reshold": 6936,
      "Ġbatch": 6937,
      "_Click": 6938,
      "entication": 6939,
      "enty": 6940,
      "Ġbeginning": 6941,
      "Ġzero": 6942,
      "ĠConvert": 6943,
      "Ġterr": 6944,
      "Ġpaid": 6945,
      "Ġincreased": 6946,
      "catch": 6947,
      "-size": 6948,
      "activity": 6949,
      "equals": 6950,
      "Ġqueue": 6951,
      "Ġ\"'": 6952,
      "ĠInternational": 6953,
      "ĠfÃ¼r": 6954,
      "ursday": 6955,
      "Ġscient": 6956,
      "allow": 6957,
      "axis": 6958,
      "Ġappropri": 6959,
      "edge": 6960,
      "Ġidx": 6961,
      "Success": 6962,
      "entifier": 6963,
      ":\\": 6964,
      "xis": 6965,
      "Ġmaximum": 6966,
      "arks": 6967,
      "Ġbirth": 6968,
      "(index": 6969,
      "Ġmaybe": 6970,
      ".py": 6971,
      "files": 6972,
      "Ġlimited": 6973,
      "_check": 6974,
      "look": 6975,
      "plies": 6976,
      "Ġmovement": 6977,
      "'].": 6978,
      "Ġbroad": 6979,
      "ĠBE": 6980,
      "ĠUnityEngine": 6981,
      ".cpp": 6982,
      "ĠEvery": 6983,
      "Admin": 6984,
      "Ġfans": 6985,
      "pared": 6986,
      "ĊĠĠĠĠĊ": 6987,
      "Ġforeign": 6988,
      "Ġpan": 6989,
      "Ġtour": 6990,
      "ĠOrder": 6991,
      "Ġmoving": 6992,
      "Ġauf": 6993,
      "Call": 6994,
      "cb": 6995,
      "ÅŁ": 6996,
      "ventory": 6997,
      "ĠSql": 6998,
      "Ġfully": 6999,
      "ClickListener": 7000,
      "WORD": 7001,
      "Ġannounced": 7002,
      "Ġagreed": 7003,
      "rie": 7004,
      "Ġearn": 7005,
      "_link": 7006,
      ".array": 7007,
      "(text": 7008,
      "Ġmaterials": 7009,
      ",p": 7010,
      "ffff": 7011,
      "vg": 7012,
      "ĠÂ©": 7013,
      "Ġunless": 7014,
      "ajax": 7015,
      "LOG": 7016,
      "Ġsexual": 7017,
      "Ġ\\\"": 7018,
      "-time": 7019,
      "Ġcoach": 7020,
      "Ġsupported": 7021,
      "Ġphotos": 7022,
      "iform": 7023,
      ".Create": 7024,
      ")]": 7025,
      "rier": 7026,
      "Ġdialog": 7027,
      "aver": 7028,
      "ige": 7029,
      ")+": 7030,
      "_idx": 7031,
      ":[": 7032,
      "_min": 7033,
      "ĠCong": 7034,
      "Ġpressure": 7035,
      "Ġteams": 7036,
      "Sign": 7037,
      "begin": 7038,
      "rian": 7039,
      "NESS": 7040,
      "LS": 7041,
      "Ġimprove": 7042,
      "ĠSunday": 7043,
      "Ġdefinition": 7044,
      "iger": 7045,
      "rollers": 7046,
      "Ġthinking": 7047,
      "Template": 7048,
      "-F": 7049,
      "Ġemerg": 7050,
      "plates": 7051,
      "ĠUSA": 7052,
      ".setState": 7053,
      "ĠAlso": 7054,
      "rev": 7055,
      "Ġenable": 7056,
      "ĠCO": 7057,
      "PECT": 7058,
      "Ġconcept": 7059,
      ")-": 7060,
      "ĠâĢ¢": 7061,
      "Ġsets": 7062,
      "Ġmeaning": 7063,
      "emon": 7064,
      "ĠCons": 7065,
      "cmp": 7066,
      "eder": 7067,
      "anned": 7068,
      "icensed": 7069,
      "ĠSuper": 7070,
      "Ġdaily": 7071,
      "Ġmulti": 7072,
      "_u": 7073,
      "Ġchalleng": 7074,
      "_mode": 7075,
      "ĠPromise": 7076,
      "Ġstrict": 7077,
      "jo": 7078,
      "inton": 7079,
      "(list": 7080,
      "Only": 7081,
      ">{": 7082,
      "Ġvehicle": 7083,
      "íķ": 7084,
      "ĠPlayer": 7085,
      "ĠDel": 7086,
      "Ġpool": 7087,
      ".url": 7088,
      "nesday": 7089,
      "Local": 7090,
      "Ġorganization": 7091,
      "render": 7092,
      "ĠApplication": 7093,
      "Ġsummer": 7094,
      "expected": 7095,
      "NA": 7096,
      "Ġrap": 7097,
      "_obj": 7098,
      "Ġsurface": 7099,
      "ĠPUR": 7100,
      "Ġvariables": 7101,
      "(message": 7102,
      "Ġopin": 7103,
      ".back": 7104,
      "Ð°Ð½": 7105,
      "Ġworkers": 7106,
      "vm": 7107,
      "Co": 7108,
      "ughter": 7109,
      "Ġmaster": 7110,
      "Ġ\"\",": 7111,
      "Ġstories": 7112,
      ".User": 7113,
      "Ġcelebr": 7114,
      "inese": 7115,
      "BS": 7116,
      "ĠCommand": 7117,
      "ashboard": 7118,
      "Ġog": 7119,
      "kg": 7120,
      ".image": 7121,
      ".style": 7122,
      "Ġsteps": 7123,
      "ĠBen": 7124,
      "(args": 7125,
      "ĠPerson": 7126,
      ",y": 7127,
      "Ġofficials": 7128,
      "Ġskills": 7129,
      "vc": 7130,
      "Ġbuilder": 7131,
      "Ġgar": 7132,
      "Account": 7133,
      "ĠAuth": 7134,
      "ĠAT": 7135,
      "nn": 7136,
      ".Int": 7137,
      "SSERT": 7138,
      "Ġeffective": 7139,
      "LETE": 7140,
      "Ġtools": 7141,
      "ARD": 7142,
      "Ġdigital": 7143,
      "Double": 7144,
      "ĠFind": 7145,
      "RC": 7146,
      "Ġinline": 7147,
      "/r": 7148,
      "ARAM": 7149,
      "ASK": 7150,
      "Ġintent": 7151,
      "aight": 7152,
      "_addr": 7153,
      "Ġrequests": 7154,
      ".first": 7155,
      "Ġdebug": 7156,
      "Ġspent": 7157,
      "ÅĽ": 7158,
      "Ġprincip": 7159,
      "Logger": 7160,
      "cludes": 7161,
      ".use": 7162,
      "Ġsurv": 7163,
      "media": 7164,
      "ĠFebruary": 7165,
      "ĠMac": 7166,
      "Ġmissing": 7167,
      "Ġwife": 7168,
      "Ġtalking": 7169,
      "ĠMake": 7170,
      "Ġcart": 7171,
      "Ġlocated": 7172,
      "Enc": 7173,
      "-a": 7174,
      "chron": 7175,
      "Ġcards": 7176,
      "Ġguy": 7177,
      "Ġpers": 7178,
      "ĠYes": 7179,
      "atever": 7180,
      "ĠAng": 7181,
      "olar": 7182,
      "ĠEven": 7183,
      "Ġaccur": 7184,
      "ĠPower": 7185,
      "ĠGold": 7186,
      "clear": 7187,
      "Process": 7188,
      "Ġrecords": 7189,
      "Ġkilled": 7190,
      ".clear": 7191,
      "ĠWARRANTIES": 7192,
      "Ġpurpose": 7193,
      "panel": 7194,
      "JECT": 7195,
      "ÃŃa": 7196,
      "Ġexerc": 7197,
      "WS": 7198,
      "/L": 7199,
      ".exports": 7200,
      "Ġ___": 7201,
      "Ġsin": 7202,
      "Servlet": 7203,
      "ĠdÃ©": 7204,
      ".delete": 7205,
      "roke": 7206,
      "Sl": 7207,
      "ugh": 7208,
      "ears": 7209,
      "Ġpointer": 7210,
      "Ġhop": 7211,
      "allery": 7212,
      "Ġobs": 7213,
      "covery": 7214,
      "ĉchar": 7215,
      "ĉĉĉĉĉĉĉĉĉĉ": 7216,
      "ĉdef": 7217,
      "ocity": 7218,
      "itchen": 7219,
      "ulations": 7220,
      "ĠFIT": 7221,
      "Ġ).": 7222,
      "straints": 7223,
      "vention": 7224,
      "Ġrequires": 7225,
      "ĠOper": 7226,
      "ME": 7227,
      "OUNT": 7228,
      "allet": 7229,
      "Ġnorm": 7230,
      "IRE": 7231,
      "exas": 7232,
      "Ġprograms": 7233,
      "Ġweak": 7234,
      "'.$": 7235,
      "uing": 7236,
      "ĉĠĠĠĠĠĠĠ": 7237,
      "Ġmil": 7238,
      "Ġfirm": 7239,
      "initely": 7240,
      "_VALUE": 7241,
      "apse": 7242,
      "atisf": 7243,
      "Ġdemand": 7244,
      "_mod": 7245,
      "Ġdescribed": 7246,
      "Ġplaces": 7247,
      "VID": 7248,
      "Ġalone": 7249,
      "Ġexport": 7250,
      "Ġvec": 7251,
      "ĠMax": 7252,
      "Ġactivities": 7253,
      "ictures": 7254,
      "gener": 7255,
      "Ġma": 7256,
      "Ĥ¬": 7257,
      "Ġexpression": 7258,
      "Callback": 7259,
      "_content": 7260,
      "ĠMost": 7261,
      "Ġtesting": 7262,
      "EC": 7263,
      "CHANT": 7264,
      "Ġadjust": 7265,
      ".Threading": 7266,
      "(ctx": 7267,
      "Ġagree": 7268,
      "ighest": 7269,
      "Ġui": 7270,
      "ĠLaw": 7271,
      ".Y": 7272,
      "><?": 7273,
      "Ġpod": 7274,
      "-lg": 7275,
      "Ġdescribe": 7276,
      "ĠEuropean": 7277,
      "-sh": 7278,
      "ĠPURPOSE": 7279,
      "ORY": 7280,
      "Ġconvers": 7281,
      "ĠIlluminate": 7282,
      "ĠAv": 7283,
      "(ch": 7284,
      "?\"": 7285,
      "chen": 7286,
      "ima": 7287,
      "Document": 7288,
      "Ġoperations": 7289,
      "win": 7290,
      "ĉfunction": 7291,
      ".Image": 7292,
      "Ġscen": 7293,
      "/h": 7294,
      "ĠSC": 7295,
      "Ġexplo": 7296,
      ":%": 7297,
      "NAME": 7298,
      "(var": 7299,
      "Ġdirector": 7300,
      "ONG": 7301,
      "Ġyield": 7302,
      "Ġfeet": 7303,
      "ĠSearch": 7304,
      "ĠIl": 7305,
      "Ġrestaur": 7306,
      "duc": 7307,
      "Ġinteger": 7308,
      "Ġhighly": 7309,
      "checked": 7310,
      "ĠPARTIC": 7311,
      "ERCHANT": 7312,
      "ï¼ī": 7313,
      "Ġoptim": 7314,
      "Queue": 7315,
      "ĠLI": 7316,
      "itation": 7317,
      "Ġtransport": 7318,
      "ission": 7319,
      "fill": 7320,
      "usion": 7321,
      "ĠĠĠĠĠĠĠĠĠĠĠĠĠĠĠĠĠĠĠĠĠĠĠĠĠĠĠĠĠĠ": 7322,
      "ĉbool": 7323,
      "-th": 7324,
      "upt": 7325,
      "Ġessential": 7326,
      "anted": 7327,
      "Ġbenefits": 7328,
      "ĉS": 7329,
      "iki": 7330,
      "Ġgirls": 7331,
      "iced": 7332,
      "buffer": 7333,
      "]+": 7334,
      "Ġsocket": 7335,
      "Ġprices": 7336,
      "ĠFre": 7337,
      "Ġsat": 7338,
      "Ġwood": 7339,
      "MenuItem": 7340,
      "ARG": 7341,
      "ĠAdmin": 7342,
      "OWN": 7343,
      "dk": 7344,
      "Ġreset": 7345,
      "Ġforms": 7346,
      "ĠÐ¸": 7347,
      "ĠTuesday": 7348,
      "ĠInitialized": 7349,
      "_train": 7350,
      "orary": 7351,
      "ategor": 7352,
      "Ġdt": 7353,
      "Total": 7354,
      "construct": 7355,
      "ilies": 7356,
      "Ġguys": 7357,
      "ÐµÑĢ": 7358,
      "Ġinstruction": 7359,
      "yled": 7360,
      "Ġinternet": 7361,
      "etadata": 7362,
      "ady": 7363,
      "faces": 7364,
      "jection": 7365,
      "ĠJack": 7366,
      "Ġrect": 7367,
      "[-": 7368,
      "ĠLeg": 7369,
      "Ġdevices": 7370,
      "OC": 7371,
      "oration": 7372,
      "ertain": 7373,
      "Ġguard": 7374,
      "ostream": 7375,
      "Ġenum": 7376,
      ".layout": 7377,
      "voke": 7378,
      "ĠOk": 7379,
      "Home": 7380,
      "(tr": 7381,
      "ETH": 7382,
      "Ġdelay": 7383,
      "Ġpurchase": 7384,
      "dc": 7385,
      "Ġaren": 7386,
      "_once": 7387,
      "ĉĉĉĉĊ": 7388,
      "ror": 7389,
      "draw": 7390,
      ".run": 7391,
      "(model": 7392,
      "Timeout": 7393,
      "lik": 7394,
      "ĠArg": 7395,
      ".en": 7396,
      "Ġfish": 7397,
      "cpy": 7398,
      "_fe": 7399,
      "ERCHANTABILITY": 7400,
      "(X": 7401,
      "_output": 7402,
      "??": 7403,
      "Ġjo": 7404,
      "andard": 7405,
      "Ġdoll": 7406,
      "errors": 7407,
      "_base": 7408,
      "ĠPARTICULAR": 7409,
      "Ġleader": 7410,
      "Ġcompar": 7411,
      "Ġdoub": 7412,
      "ĠVis": 7413,
      "StackTrace": 7414,
      "-C": 7415,
      "ĠStud": 7416,
      "stitute": 7417,
      "More": 7418,
      "ĠDescription": 7419,
      "WARE": 7420,
      "ads": 7421,
      "ĠÐº": 7422,
      "bind": 7423,
      "=self": 7424,
      "employ": 7425,
      "[n": 7426,
      ".all": 7427,
      "-B": 7428,
      "&&": 7429,
      "alm": 7430,
      "Ġculture": 7431,
      "house": 7432,
      "Ġsuffer": 7433,
      "Ġ'%": 7434,
      "Ġstraight": 7435,
      "ĠStar": 7436,
      "udo": 7437,
      "Ġded": 7438,
      "ĠCOM": 7439,
      "Ġconfirm": 7440,
      "ĠGood": 7441,
      ".sc": 7442,
      "________________": 7443,
      "DR": 7444,
      "Configuration": 7445,
      "DateTime": 7446,
      "Ġadvert": 7447,
      "Ġcouldn": 7448,
      "async": 7449,
      "stack": 7450,
      "Kit": 7451,
      "Ġhous": 7452,
      "Ġmechan": 7453,
      "rate": 7454,
      "Ġaudio": 7455,
      "ĉcout": 7456,
      "cores": 7457,
      "Ġspot": 7458,
      "Ġincreasing": 7459,
      "Ġ##": 7460,
      ")))": 7461,
      "points": 7462,
      "Ġcompared": 7463,
      "lig": 7464,
      "Ġbehavior": 7465,
      "ĠBY": 7466,
      "ĠAtt": 7467,
      "craft": 7468,
      "headers": 7469,
      "ete": 7470,
      "endregion": 7471,
      "Ġdetail": 7472,
      "ULE": 7473,
      "ĠCommon": 7474,
      "ĉprotected": 7475,
      "ston": 7476,
      "ĠFITNESS": 7477,
      "Ġfresh": 7478,
      ".example": 7479,
      "berg": 7480,
      "Ġmoved": 7481,
      "ĉe": 7482,
      "ĠSaturday": 7483,
      "Ġpayload": 7484,
      "Äĩ": 7485,
      "Ġbey": 7486,
      "urer": 7487,
      "<script": 7488,
      "Ġsymbol": 7489,
      "Ġassum": 7490,
      "Ġpul": 7491,
      "Effect": 7492,
      "Ġhundred": 7493,
      "Tool": 7494,
      "aked": 7495,
      "connection": 7496,
      "Ġvoice": 7497,
      "Ġpd": 7498,
      "Ġtransaction": 7499,
      "Ġlinks": 7500,
      "Err": 7501,
      "ĠIndian": 7502,
      "TC": 7503,
      "atalog": 7504,
      "ni": 7505,
      "sign": 7506,
      "<<\"": 7507,
      "ji": 7508,
      "ya": 7509,
      "Ġdemonstr": 7510,
      "ulated": 7511,
      ".St": 7512,
      "Ġinstit": 7513,
      "Ġboost": 7514,
      "Ġcells": 7515,
      "olic": 7516,
      ".Pro": 7517,
      ":</": 7518,
      "EventListener": 7519,
      "ifying": 7520,
      "ĠDi": 7521,
      "orrow": 7522,
      ".execute": 7523,
      "Ġcollege": 7524,
      "Your": 7525,
      "Ġlargest": 7526,
      ".dis": 7527,
      "Ġqui": 7528,
      "Ġindividuals": 7529,
      "_buffer": 7530,
      "Ġng": 7531,
      "SA": 7532,
      "ĠControl": 7533,
      "Ġsing": 7534,
      "Ġsuit": 7535,
      "ĠĠĠĠĉ": 7536,
      "SG": 7537,
      "Ġjump": 7538,
      "Ġsmart": 7539,
      "oma": 7540,
      "ĠExp": 7541,
      "Ġ'-": 7542,
      "Ġassist": 7543,
      "Ġsuccessfully": 7544,
      "sys": 7545,
      "ĠCre": 7546,
      "_ref": 7547,
      "ĠThursday": 7548,
      "Ġbur": 7549,
      "ĠÐ´": 7550,
      "Ġbeyond": 7551,
      "Ġnodes": 7552,
      "Details": 7553,
      "inct": 7554,
      "ĠJames": 7555,
      "Ġaffect": 7556,
      "exception": 7557,
      "Ġtypeof": 7558,
      "-se": 7559,
      "Ġfetch": 7560,
      "`,": 7561,
      "Ġcrusher": 7562,
      "}.": 7563,
      "ĠBO": 7564,
      "Show": 7565,
      "Ġrates": 7566,
      "Ġbon": 7567,
      "-icon": 7568,
      "ĠMedia": 7569,
      "RESS": 7570,
      "ĠValid": 7571,
      "Ġfuck": 7572,
      "acks": 7573,
      "Ġstudies": 7574,
      "Me": 7575,
      "Ġowners": 7576,
      "}else": 7577,
      "Ġgrowing": 7578,
      "Variable": 7579,
      "ĠBel": 7580,
      ".random": 7581,
      "vement": 7582,
      "onym": 7583,
      "(F": 7584,
      "ĠFALSE": 7585,
      "Ġtorch": 7586,
      "(row": 7587,
      "igo": 7588,
      "structure": 7589,
      "Ġcertainly": 7590,
      "Dep": 7591,
      "ĠGreen": 7592,
      "question": 7593,
      "Ġadding": 7594,
      "ĠDevelop": 7595,
      "_def": 7596,
      "Ġmach": 7597,
      "=%": 7598,
      "ĉĉĠ": 7599,
      "conds": 7600,
      "Project": 7601,
      "Ġreject": 7602,
      "ĠÎ": 7603,
      "Ġpoor": 7604,
      "Ġaware": 7605,
      "ĠBuild": 7606,
      "ĠBritish": 7607,
      "ĠNE": 7608,
      "Ġnumer": 7609,
      "rees": 7610,
      "claim": 7611,
      "Ġmock": 7612,
      "Ġom": 7613,
      "Ġscre": 7614,
      "OLD": 7615,
      ".pl": 7616,
      "eler": 7617,
      "Ġcorrespond": 7618,
      "_HE": 7619,
      "Ġbinary": 7620,
      "_order": 7621,
      "ĠSQL": 7622,
      "Ġadvant": 7623,
      "Ġprev": 7624,
      ".[": 7625,
      ".assertEqual": 7626,
      "plier": 7627,
      "arp": 7628,
      "Ġclosed": 7629,
      "Ġencour": 7630,
      "ĠQString": 7631,
      "aud": 7632,
      "Ġdeveloped": 7633,
      "Ġpermission": 7634,
      ".debug": 7635,
      "operator": 7636,
      "Ġsym": 7637,
      "atively": 7638,
      "Ã©e": 7639,
      "-color": 7640,
      "ĠGET": 7641,
      "ky": 7642,
      "Ġalthough": 7643,
      "_request": 7644,
      "_element": 7645,
      "................": 7646,
      "_DATA": 7647,
      "Ġamazing": 7648,
      "Ġsb": 7649,
      "ĠDefault": 7650,
      "Events": 7651,
      "Ġfailure": 7652,
      "acle": 7653,
      "Properties": 7654,
      "Ġdream": 7655,
      "Ġdistr": 7656,
      "Ġau": 7657,
      "Ġgenerated": 7658,
      "ĠTeam": 7659,
      "USE": 7660,
      "Ġincome": 7661,
      "Ġeye": 7662,
      "_not": 7663,
      "\"],": 7664,
      "_form": 7665,
      "Support": 7666,
      "orders": 7667,
      ".Print": 7668,
      "ville": 7669,
      "ĠWednesday": 7670,
      "olver": 7671,
      "Ġoppos": 7672,
      "isation": 7673,
      "ola": 7674,
      "Close": 7675,
      "<p": 7676,
      "_width": 7677,
      "Invalid": 7678,
      "xb": 7679,
      "Ġstrugg": 7680,
      "_action": 7681,
      "Ġtxt": 7682,
      "ĠPath": 7683,
      "alar": 7684,
      "ĠMERCHANTABILITY": 7685,
      "service": 7686,
      "ĠMichael": 7687,
      "ableView": 7688,
      "Debug": 7689,
      "okes": 7690,
      "She": 7691,
      "Ġguess": 7692,
      "ĠJava": 7693,
      "_PATH": 7694,
      "Ġparticularly": 7695,
      "ĠII": 7696,
      "Ġdomain": 7697,
      "Ġreduce": 7698,
      "-left": 7699,
      "real": 7700,
      "Ġappears": 7701,
      "Ġcomo": 7702,
      "ĠUnit": 7703,
      "ĠGovern": 7704,
      "ali": 7705,
      "allel": 7706,
      "ĠJew": 7707,
      "_I": 7708,
      "Ġcos": 7709,
      ".color": 7710,
      "ĠGlobal": 7711,
      "Ġtele": 7712,
      "ben": 7713,
      "_trans": 7714,
      "Ġreasons": 7715,
      "Ġemb": 7716,
      "ensity": 7717,
      "lines": 7718,
      "omin": 7719,
      "Screen": 7720,
      "Ð°ÑĤ": 7721,
      "pects": 7722,
      "clip": 7723,
      "foo": 7724,
      "rent": 7725,
      "Ġaf": 7726,
      "Ġdanger": 7727,
      "iling": 7728,
      "Names": 7729,
      "Our": 7730,
      "Ġdistribution": 7731,
      "While": 7732,
      "SL": 7733,
      "Write": 7734,
      "Ġgoto": 7735,
      "Ġcolors": 7736,
      "Ġpowerful": 7737,
      "kin": 7738,
      "Ġdepth": 7739,
      "ercial": 7740,
      "ĠCongress": 7741,
      "ĠMarket": 7742,
      "Db": 7743,
      "under": 7744,
      "ĠLast": 7745,
      "ÃŁ": 7746,
      "greg": 7747,
      "Ġposts": 7748,
      "_URL": 7749,
      "otos": 7750,
      "Don": 7751,
      "Ġmicro": 7752,
      "Ġarrest": 7753,
      "Ð¿": 7754,
      "Ġ(@": 7755,
      "ĠHot": 7756,
      "ĠIndex": 7757,
      ";&": 7758,
      "#!": 7759,
      "ĠNor": 7760,
      "ĠCap": 7761,
      "-(": 7762,
      "Ġinterested": 7763,
      "pear": 7764,
      "Ġrent": 7765,
      "Ġalbum": 7766,
      "olicy": 7767,
      ".lang": 7768,
      ".trans": 7769,
      ".format": 7770,
      "phere": 7771,
      "Ġaxis": 7772,
      "ĠBusiness": 7773,
      "ersistence": 7774,
      "urr": 7775,
      "Ġminimum": 7776,
      "endor": 7777,
      "ĠSD": 7778,
      "ĠInternet": 7779,
      "Exp": 7780,
      "iverse": 7781,
      "MM": 7782,
      "Ġobvious": 7783,
      "Ġbasis": 7784,
      "Ġscience": 7785,
      "Ġbudget": 7786,
      "izations": 7787,
      "PA": 7788,
      "Ġflags": 7789,
      "pret": 7790,
      "LOCK": 7791,
      "Ġvariety": 7792,
      "Ġtruth": 7793,
      "dt": 7794,
      "Ġgone": 7795,
      "Ġbattle": 7796,
      "<std": 7797,
      "ĠSil": 7798,
      "rf": 7799,
      "uda": 7800,
      "Ġerot": 7801,
      "ĠCam": 7802,
      "Ġstation": 7803,
      "Ġ'</": 7804,
      "cheme": 7805,
      "ĠSun": 7806,
      "Ġfinished": 7807,
      "Ġshop": 7808,
      "ĠKore": 7809,
      "Ġeight": 7810,
      "_REG": 7811,
      "ND": 7812,
      ">,": 7813,
      "\"><?": 7814,
      "(num": 7815,
      "ĉinline": 7816,
      "Transaction": 7817,
      ".On": 7818,
      "Ġmail": 7819,
      "rey": 7820,
      "results": 7821,
      "Ġnav": 7822,
      "IMIT": 7823,
      "_ids": 7824,
      "Make": 7825,
      "Modal": 7826,
      "ĠLOG": 7827,
      "ĠSur": 7828,
      "Ġinstanceof": 7829,
      "Ġoverall": 7830,
      "ĠInformation": 7831,
      "Ġconstruction": 7832,
      "_FILE": 7833,
      "but": 7834,
      "Ġmedic": 7835,
      "Ġduration": 7836,
      "itness": 7837,
      "agent": 7838,
      "AV": 7839,
      "Ġseven": 7840,
      "olf": 7841,
      "Ġcalling": 7842,
      "Ġans": 7843,
      "throws": 7844,
      "orizontal": 7845,
      "ĠuseState": 7846,
      ".fl": 7847,
      "ĠStatus": 7848,
      "ĠOnline": 7849,
      "RR": 7850,
      "ĠRich": 7851,
      "ĠHill": 7852,
      "Ġbrain": 7853,
      "Ġfollowed": 7854,
      "emic": 7855,
      "Ġslight": 7856,
      "Ġinsurance": 7857,
      ".Array": 7858,
      "Ġabstract": 7859,
      "ĠSum": 7860,
      "redirect": 7861,
      "owner": 7862,
      "(msg": 7863,
      "ĠClinton": 7864,
      "Non": 7865,
      "ĉex": 7866,
      "Ġvolume": 7867,
      "ĠEventArgs": 7868,
      "-L": 7869,
      "ĠDim": 7870,
      "ĠMart": 7871,
      "Ġcursor": 7872,
      "Ġimplementation": 7873,
      "urred": 7874,
      "Ġlarger": 7875,
      "'+": 7876,
      ".transform": 7877,
      "Ġupload": 7878,
      "ĠĠĠĠĠĠĠĠĠĠĠĠĠĠĠĠĠĠĠĠĠĠĠĠĠĠĠĠĠĠĠĠĠĠĠĠĠĠĠĠĠĠĠĠĠĠĠĠĠĠĠĠĠĠĠ": 7879,
      "Draw": 7880,
      "nel": 7881,
      "ĉfloat": 7882,
      "qrt": 7883,
      "ĠNetwork": 7884,
      "Ġtit": 7885,
      "Axis": 7886,
      ".android": 7887,
      "Ġcompleted": 7888,
      "Ġmur": 7889,
      "Ġcolumns": 7890,
      "xc": 7891,
      "Ġsupply": 7892,
      "iminal": 7893,
      "Ġspr": 7894,
      "================================================================": 7895,
      "Ġunits": 7896,
      "(u": 7897,
      "mi": 7898,
      "replace": 7899,
      "[key": 7900,
      "à¹": 7901,
      "antic": 7902,
      "Ġpayment": 7903,
      ",B": 7904,
      "ĠApple": 7905,
      "gin": 7906,
      "Required": 7907,
      "#+": 7908,
      "lands": 7909,
      "Ġsqu": 7910,
      "Ġfactor": 7911,
      "dec": 7912,
      "Ġstrength": 7913,
      "Ġboy": 7914,
      "Ġbalance": 7915,
      "Ġsources": 7916,
      "screen": 7917,
      "-top": 7918,
      "ĠAmazon": 7919,
      "Ġhidden": 7920,
      "ÐµÑĤ": 7921,
      "_client": 7922,
      "Ġeat": 7923,
      ".display": 7924,
      "ĠÂ»": 7925,
      "Ġtrigger": 7926,
      "anager": 7927,
      "Ġtro": 7928,
      "Ġclaims": 7929,
      "ford": 7930,
      "ĠCompany": 7931,
      "Ġgift": 7932,
      ",:": 7933,
      "_app": 7934,
      "handle": 7935,
      "Ġproduce": 7936,
      "/lib": 7937,
      "Ġ-*": 7938,
      "ĉset": 7939,
      "'];": 7940,
      "arc": 7941,
      "ander": 7942,
      "ĠEngine": 7943,
      "Ġattributes": 7944,
      "task": 7945,
      "<=": 7946,
      "(N": 7947,
      "Ġwarm": 7948,
      "which": 7949,
      "ĠFore": 7950,
      "agnost": 7951,
      "mys": 7952,
      "Ġtal": 7953,
      "ĠSal": 7954,
      "gi": 7955,
      "ĠPrint": 7956,
      "ĠTRUE": 7957,
      "ĠÐ¾": 7958,
      ".UI": 7959,
      "Ġflash": 7960,
      "roperty": 7961,
      ".location": 7962,
      "ĠMill": 7963,
      "bi": 7964,
      "contr": 7965,
      ".request": 7966,
      "ĠSam": 7967,
      "Ġnegative": 7968,
      "kit": 7969,
      "Ġsett": 7970,
      ".printStackTrace": 7971,
      "abe": 7972,
      "ĉi": 7973,
      "Ġburn": 7974,
      "Ġsociety": 7975,
      "Cache": 7976,
      "ĠSecurity": 7977,
      ".models": 7978,
      "ĠWARRANTY": 7979,
      "_up": 7980,
      "ceive": 7981,
      "Ġclients": 7982,
      ".Tr": 7983,
      "Ġproviding": 7984,
      "Ġrout": 7985,
      "material": 7986,
      "ĠSer": 7987,
      "ĠOffice": 7988,
      "FTWARE": 7989,
      "Ġ'$": 7990,
      "Ġfoc": 7991,
      "Ġexcell": 7992,
      "Ġcat": 7993,
      "normal": 7994,
      "Ġdetermine": 7995,
      "ĉuint": 7996,
      "Pane": 7997,
      "Ġemployees": 7998,
      "ĠTexas": 7999,
      "Ġtraff": 8000,
      "ĠReport": 8001,
      "anta": 8002,
      "ĠBox": 8003,
      "Ġdjango": 8004,
      "Ġpartner": 8005,
      "EB": 8006,
      "LINE": 8007,
      "Ġfeeling": 8008,
      "Ġcivil": 8009,
      "(float": 8010,
      "Sql": 8011,
      "Ġwouldn": 8012,
      ".init": 8013,
      ".left": 8014,
      "-v": 8015,
      "_level": 8016,
      "'}": 8017,
      "AF": 8018,
      "Ġloading": 8019,
      "ĠOnly": 8020,
      "Ġcookies": 8021,
      "ĠGl": 8022,
      "CO": 8023,
      "Ġstrategy": 8024,
      "('./": 8025,
      "Ġship": 8026,
      "poses": 8027,
      "Ġsignal": 8028,
      "Ġalpha": 8029,
      ".pop": 8030,
      "Radius": 8031,
      "Ġreplace": 8032,
      "_DIR": 8033,
      "counter": 8034,
      "bservable": 8035,
      "ela": 8036,
      "Weight": 8037,
      "hash": 8038,
      "bose": 8039,
      "fx": 8040,
      "ĠEmail": 8041,
      "Ġrefer": 8042,
      "localhost": 8043,
      "_RO": 8044,
      "iques": 8045,
      "Step": 8046,
      "Ġahead": 8047,
      "(View": 8048,
      "ĠServices": 8049,
      "ĠJson": 8050,
      "essor": 8051,
      "Ġpun": 8052,
      "Ġappropriate": 8053,
      "akers": 8054,
      "osen": 8055,
      "posing": 8056,
      "Ġagent": 8057,
      "fc": 8058,
      "Ġtransfer": 8059,
      "Ġinvalid": 8060,
      "ĠResearch": 8061,
      "Vertex": 8062,
      "Ġgay": 8063,
      "Ġjournal": 8064,
      "[x": 8065,
      "ĠWell": 8066,
      ".Tasks": 8067,
      "Spec": 8068,
      "Ġol": 8069,
      "Ġspend": 8070,
      "ĠAustralia": 8071,
      "Match": 8072,
      ".junit": 8073,
      "ĠĠĠĠĠĠĠĠĠĠĠĠĠĠĠĠĠĠĠĠĠĠĠĠĠĠĠĠĠĠĠĠĠĠĠĠĠ": 8074,
      "ĠMAX": 8075,
      "izable": 8076,
      "clusive": 8077,
      "_valid": 8078,
      "Ġquarter": 8079,
      "yan": 8080,
      "ĠEdit": 8081,
      "arden": 8082,
      "=new": 8083,
      "Ġfrag": 8084,
      "Bit": 8085,
      "zi": 8086,
      "aine": 8087,
      "udd": 8088,
      ".Object": 8089,
      "debug": 8090,
      "Ġcash": 8091,
      "_IM": 8092,
      "Ġeen": 8093,
      "Ġcommercial": 8094,
      "ĠVideo": 8095,
      "loader": 8096,
      "Ġfixed": 8097,
      "Ġapplications": 8098,
      "Ġ_,": 8099,
      "ĠRussia": 8100,
      "itect": 8101,
      "_(": 8102,
      "ĠBlock": 8103,
      "Ġsan": 8104,
      "ĠTom": 8105,
      "Ġperhaps": 8106,
      "Ġsig": 8107,
      "levant": 8108,
      "Ġcorpor": 8109,
      "ataset": 8110,
      "ronic": 8111,
      "xe": 8112,
      "Ġeth": 8113,
      "Some": 8114,
      "pop": 8115,
      "_OK": 8116,
      "Ġtend": 8117,
      ".Res": 8118,
      "_and": 8119,
      "Ġreviews": 8120,
      "Ġwild": 8121,
      "Ġdegree": 8122,
      ".O": 8123,
      ".objects": 8124,
      "_args": 8125,
      "nil": 8126,
      "Ġdisabled": 8127,
      "Parent": 8128,
      "Ġnotes": 8129,
      "(state": 8130,
      "istrict": 8131,
      "Ġlogging": 8132,
      ".IO": 8133,
      "ĠMal": 8134,
      "DM": 8135,
      "Ġxml": 8136,
      "ĠRobert": 8137,
      "elen": 8138,
      "layout": 8139,
      "fol": 8140,
      "']))": 8141,
      ",b": 8142,
      "ĠJer": 8143,
      "filename": 8144,
      "Ġfan": 8145,
      "ĠCustom": 8146,
      "=\"\"": 8147,
      "ĠDie": 8148,
      "Bundle": 8149,
      ".utils": 8150,
      "Ġtrip": 8151,
      "MB": 8152,
      "Ġsoft": 8153,
      "_MODE": 8154,
      "Ġapplicable": 8155,
      "Ġupper": 8156,
      "ERVER": 8157,
      "_al": 8158,
      "_LOG": 8159,
      "Here": 8160,
      "wp": 8161,
      "ĠServer": 8162,
      "ĠClient": 8163,
      "Ġchem": 8164,
      "Scroll": 8165,
      "Ġhighest": 8166,
      "ĠSelect": 8167,
      "Ġ\"@": 8168,
      "ĠWhy": 8169,
      "Sec": 8170,
      "heel": 8171,
      "Operation": 8172,
      "Ġconnected": 8173,
      "irmed": 8174,
      "Ġcitiz": 8175,
      "ĠChe": 8176,
      "Ġforces": 8177,
      "Ġwww": 8178,
      "Root": 8179,
      "ANCE": 8180,
      "Many": 8181,
      "icip": 8182,
      "rgan": 8183,
      "ĠTor": 8184,
      "ĠPress": 8185,
      "ĠMor": 8186,
      "-line": 8187,
      "uled": 8188,
      ">\\": 8189,
      "Ġthus": 8190,
      "ĠRegister": 8191,
      "hol": 8192,
      "ĠChinese": 8193,
      "Ġposted": 8194,
      "Ġmagn": 8195,
      "abilities": 8196,
      "Ġdisease": 8197,
      "Ġremains": 8198,
      "ĠProf": 8199,
      "-form": 8200,
      "Ġcin": 8201,
      "organ": 8202,
      "icate": 8203,
      "Ġstress": 8204,
      "]*": 8205,
      "Ġ----------------------------------------------------------------": 8206,
      "_context": 8207,
      "orry": 8208,
      "Ġdied": 8209,
      "mat": 8210,
      "Ġstarts": 8211,
      ".Message": 8212,
      "Ġruns": 8213,
      "Ġguide": 8214,
      "Ġwarranty": 8215,
      "entials": 8216,
      "dict": 8217,
      "ĠSize": 8218,
      "uler": 8219,
      "Ġresponsible": 8220,
      "_SET": 8221,
      "Ġcontaining": 8222,
      "ĠPrice": 8223,
      "||": 8224,
      "FS": 8225,
      "Ġemp": 8226,
      "_button": 8227,
      "(uint": 8228,
      "Ġsuff": 8229,
      "pth": 8230,
      "Ġdefinitely": 8231,
      "pute": 8232,
      "Ġmarketing": 8233,
      "ĠWH": 8234,
      "ĠSie": 8235,
      "+=": 8236,
      "OLOR": 8237,
      "Ġconsult": 8238,
      "Ġsigned": 8239,
      "Ġsequence": 8240,
      "lee": 8241,
      "Ġrequirements": 8242,
      "hy": 8243,
      "Express": 8244,
      "MT": 8245,
      "sey": 8246,
      "Ġult": 8247,
      "elligence": 8248,
      "Ġanaly": 8249,
      "Ġdress": 8250,
      "engine": 8251,
      "ĠGreat": 8252,
      "ĠAndroid": 8253,
      "ĠAlex": 8254,
      "mode": 8255,
      "Dictionary": 8256,
      ".Date": 8257,
      "VICE": 8258,
      "Ġfamilies": 8259,
      "ĠRussian": 8260,
      "ĠTimes": 8261,
      ".call": 8262,
      "$(": 8263,
      "Profile": 8264,
      "Ġfolder": 8265,
      "ches": 8266,
      "Ġlegis": 8267,
      "_row": 8268,
      "unes": 8269,
      "ÙĦ": 8270,
      "Ġ}).": 8271,
      "Assert": 8272,
      "agen": 8273,
      "ĠHand": 8274,
      "Iter": 8275,
      "Ġbiggest": 8276,
      "oreach": 8277,
      "Ġpolic": 8278,
      "Ġpermissions": 8279,
      "Ġshowed": 8280,
      "ĠElement": 8281,
      "Ġtopic": 8282,
      "âĢĶâĢĶ": 8283,
      "road": 8284,
      "ĠBank": 8285,
      "record": 8286,
      "Ġpartners": 8287,
      "ĠRef": 8288,
      "essions": 8289,
      "Ġassess": 8290,
      "UST": 8291,
      "ĠParty": 8292,
      "produ": 8293,
      "LC": 8294,
      "Ġul": 8295,
      ".form": 8296,
      "hide": 8297,
      "copy": 8298,
      "UTF": 8299,
      "ĠSOFTWARE": 8300,
      "čĊčĊčĊ": 8301,
      "ĠLin": 8302,
      "una": 8303,
      "ugar": 8304,
      "Ġadministration": 8305,
      "Ġopening": 8306,
      "Ġscan": 8307,
      "Ġcontinued": 8308,
      "component": 8309,
      ".sp": 8310,
      "Ġhappens": 8311,
      "ummy": 8312,
      "ĠPR": 8313,
      ".File": 8314,
      "ĠDownload": 8315,
      "Loading": 8316,
      "di": 8317,
      "Ġwaiting": 8318,
      "_ADD": 8319,
      "Tab": 8320,
      ".querySelector": 8321,
      "Ġeconomy": 8322,
      "ĠFrench": 8323,
      "txt": 8324,
      "Ġfant": 8325,
      "Holder": 8326,
      "SH": 8327,
      "Ġnumpy": 8328,
      "Ġstreet": 8329,
      "Ġmale": 8330,
      "\\Model": 8331,
      "anging": 8332,
      "ĠBill": 8333,
      "Ġpreviously": 8334,
      "BI": 8335,
      "ĠSecret": 8336,
      "Ġmist": 8337,
      "ĠField": 8338,
      "ups": 8339,
      "ĠProcess": 8340,
      "Ġkept": 8341,
      "ĠOT": 8342,
      "Ġtraditional": 8343,
      ".i": 8344,
      "amin": 8345,
      "Ġhelps": 8346,
      "Any": 8347,
      "origin": 8348,
      "ilters": 8349,
      "ju": 8350,
      "desc": 8351,
      "ĠAccount": 8352,
      "ktop": 8353,
      "olly": 8354,
      "Ġfs": 8355,
      "Ġê": 8356,
      "Ġut": 8357,
      "Ġcentral": 8358,
      "(test": 8359,
      ".An": 8360,
      "Ġsatisf": 8361,
      "GR": 8362,
      "ĠFull": 8363,
      "Ġheat": 8364,
      "iber": 8365,
      "Ġonto": 8366,
      "mos": 8367,
      "Schema": 8368,
      "Ġfactory": 8369,
      "\".$": 8370,
      "aws": 8371,
      "Statement": 8372,
      "(target": 8373,
      "ĉnew": 8374,
      ".be": 8375,
      "Ġguest": 8376,
      "Ġmal": 8377,
      "ARY": 8378,
      "Ġreached": 8379,
      "Ġmouse": 8380,
      "Ġchallenge": 8381,
      "ĉdouble": 8382,
      "ĠTem": 8383,
      "Ġterror": 8384,
      "Ġextract": 8385,
      "_TO": 8386,
      "Ġseparate": 8387,
      "Ġmir": 8388,
      "help": 8389,
      "Ġcapacity": 8390,
      "ĠProperty": 8391,
      "kan": 8392,
      "_create": 8393,
      "ĠLight": 8394,
      ".parent": 8395,
      "Ġunderstanding": 8396,
      "Ġeasier": 8397,
      "Ġ|=": 8398,
      "Ġenh": 8399,
      "Ġfat": 8400,
      "Ġprotest": 8401,
      "amm": 8402,
      "_AT": 8403,
      "-of": 8404,
      "ils": 8405,
      "ĠOh": 8406,
      "Ġpsych": 8407,
      "Ġ$.": 8408,
      "inds": 8409,
      "Ġrelative": 8410,
      "shop": 8411,
      "short": 8412,
      "ĠSand": 8413,
      "uestion": 8414,
      "Ġfear": 8415,
      ".context": 8416,
      "Ġschools": 8417,
      "Ġserve": 8418,
      "zone": 8419,
      "_db": 8420,
      "Ġmajority": 8421,
      "example": 8422,
      "Ġlang": 8423,
      "ĉĠĠ": 8424,
      "Register": 8425,
      "endo": 8426,
      "Ġprocessing": 8427,
      "_template": 8428,
      "-user": 8429,
      "Ġeg": 8430,
      "COM": 8431,
      "ĠBlue": 8432,
      "iro": 8433,
      "Ġremote": 8434,
      "ĠIT": 8435,
      "#!/": 8436,
      "Ġredistrib": 8437,
      "raz": 8438,
      "ĠSince": 8439,
      "ĠTur": 8440,
      "Background": 8441,
      "===": 8442,
      "Ġreflect": 8443,
      "Ġpros": 8444,
      "cmd": 8445,
      "Ġwhom": 8446,
      "Compat": 8447,
      "ĠAre": 8448,
      "Identifier": 8449,
      "ĠThom": 8450,
      "_port": 8451,
      "gu": 8452,
      "Ġmonitor": 8453,
      "rm": 8454,
      "Ġpatient": 8455,
      "verter": 8456,
      "Ġgain": 8457,
      "-ui": 8458,
      "Inst": 8459,
      "Ġdies": 8460,
      "Area": 8461,
      "_filter": 8462,
      "Ġgrat": 8463,
      "Ġreality": 8464,
      "ordinate": 8465,
      "olved": 8466,
      "Contact": 8467,
      "Ġcompliance": 8468,
      "_or": 8469,
      "ĠVar": 8470,
      "dl": 8471,
      "Ġappend": 8472,
      "GER": 8473,
      "(max": 8474,
      ".render": 8475,
      "Ġdynamic": 8476,
      "ordinates": 8477,
      "_options": 8478,
      "_column": 8479,
      "Ġbatter": 8480,
      "space": 8481,
      "La": 8482,
      "ĠSource": 8483,
      "/bin": 8484,
      "Ġdos": 8485,
      "ĠBoard": 8486,
      "ĠThread": 8487,
      "ĠAL": 8488,
      "(config": 8489,
      "ĠMer": 8490,
      "Ġmiles": 8491,
      "_header": 8492,
      "ETHOD": 8493,
      "izz": 8494,
      "Ġbenefit": 8495,
      "Ġintegr": 8496,
      "(current": 8497,
      "ulo": 8498,
      ".default": 8499,
      "ĠDiv": 8500,
      "Ġton": 8501,
      "oth": 8502,
      "ervation": 8503,
      "edom": 8504,
      "Ġbaby": 8505,
      "ceived": 8506,
      ".top": 8507,
      "riority": 8508,
      "ĠLocal": 8509,
      "riage": 8510,
      "Ġattacks": 8511,
      "Ġhospital": 8512,
      "Ġfemale": 8513,
      "ĠLogin": 8514,
      "ĠFlor": 8515,
      "Ġchain": 8516,
      "ashion": 8517,
      "Texture": 8518,
      "Save": 8519,
      "Ġfarm": 8520,
      ".contains": 8521,
      ".Test": 8522,
      "Ġknows": 8523,
      "Ġgenerally": 8524,
      "ipeline": 8525,
      "Ġmeant": 8526,
      "encia": 8527,
      "Ġnicht": 8528,
      "Ġcontents": 8529,
      "PM": 8530,
      "chedule": 8531,
      "(line": 8532,
      "CG": 8533,
      "job": 8534,
      "ĠReal": 8535,
      "uer": 8536,
      "firm": 8537,
      "ĠØ": 8538,
      "etro": 8539,
      "Ġspeech": 8540,
      "Ġthr": 8541,
      "foreach": 8542,
      "Ġwarn": 8543,
      "ĉl": 8544,
      "Ġheavy": 8545,
      "<li": 8546,
      "Ne": 8547,
      "Ġinvestigation": 8548,
      "Math": 8549,
      "-title": 8550,
      "Ġchurch": 8551,
      "Ġdespite": 8552,
      "chain": 8553,
      "Ġwhatever": 8554,
      "arian": 8555,
      "fn": 8556,
      "Ġmeta": 8557,
      "UFF": 8558,
      "Ġregarding": 8559,
      "_SUCCESS": 8560,
      "mes": 8561,
      "ĠIntent": 8562,
      "Ġresolve": 8563,
      "poss": 8564,
      "ira": 8565,
      "force": 8566,
      "oice": 8567,
      "Ã¢": 8568,
      "Ġpm": 8569,
      "Ġupdates": 8570,
      "Arr": 8571,
      "ĠÑ": 8572,
      "testing": 8573,
      "Ġtoward": 8574,
      "ntax": 8575,
      "ëĭ": 8576,
      "Ġlisten": 8577,
      "Ġgoals": 8578,
      "InstanceState": 8579,
      "Dr": 8580,
      "Ġrare": 8581,
      "Ġtrail": 8582,
      "Keys": 8583,
      "Cal": 8584,
      "Car": 8585,
      "ĠPeople": 8586,
      "ĉlocal": 8587,
      "classes": 8588,
      "Reference": 8589,
      ".forEach": 8590,
      "emb": 8591,
      "activ": 8592,
      "Ġprim": 8593,
      "redict": 8594,
      "Ġrad": 8595,
      ".Back": 8596,
      "Ġspread": 8597,
      "Ġclock": 8598,
      "Ġvir": 8599,
      "editor": 8600,
      "Ġefforts": 8601,
      "Ġbranch": 8602,
      "Ġindust": 8603,
      "Ġmotor": 8604,
      "Ġamb": 8605,
      "Ġdatetime": 8606,
      "Ġrencont": 8607,
      "ĠChristian": 8608,
      "ĠAmericans": 8609,
      "full": 8610,
      "Ġfmt": 8611,
      ".main": 8612,
      "Ġcaused": 8613,
      "_update": 8614,
      "ĠContent": 8615,
      "ATCH": 8616,
      "Ġbath": 8617,
      "ĠEach": 8618,
      "Ġradio": 8619,
      "achment": 8620,
      "uzz": 8621,
      "Submit": 8622,
      "Ġrestrict": 8623,
      "abin": 8624,
      "ĠLoad": 8625,
      "Ġextension": 8626,
      "Ġessay": 8627,
      "Ġhat": 8628,
      "aviour": 8629,
      "toBe": 8630,
      "\":[": 8631,
      "Ġoffered": 8632,
      "Ġvill": 8633,
      "(double": 8634,
      "bc": 8635,
      "_free": 8636,
      "ĠMiss": 8637,
      "ĠBer": 8638,
      "ĠLike": 8639,
      "Ġhelped": 8640,
      ".getName": 8641,
      "_AL": 8642,
      "Ġspirit": 8643,
      "ĠApache": 8644,
      "ws": 8645,
      "Ġtherefore": 8646,
      "(params": 8647,
      "_img": 8648,
      "Ġpeace": 8649,
      "Ġincor": 8650,
      "ĠEXPECT": 8651,
      "Ġminor": 8652,
      "ipes": 8653,
      "ĉdata": 8654,
      "selector": 8655,
      "city": 8656,
      "trie": 8657,
      ".base": 8658,
      "_frame": 8659,
      "Ġopened": 8660,
      "/json": 8661,
      "LY": 8662,
      "nu": 8663,
      ".De": 8664,
      "tf": 8665,
      "margin": 8666,
      ".Parse": 8667,
      "Ġpi": 8668,
      "Ġeq": 8669,
      "bd": 8670,
      "Fields": 8671,
      "ĠTree": 8672,
      "Ġban": 8673,
      "istan": 8674,
      "ĊĠĠĠĠĠĠĠĠĊ": 8675,
      "ĉgl": 8676,
      "Ġproduced": 8677,
      "system": 8678,
      "Mark": 8679,
      "_hash": 8680,
      "Ġbg": 8681,
      "Ġconstit": 8682,
      "ĠLeague": 8683,
      "Ġmission": 8684,
      "_format": 8685,
      "clusion": 8686,
      "!\"": 8687,
      "Ð·": 8688,
      "break": 8689,
      "ĉswitch": 8690,
      "Ġther": 8691,
      "Transform": 8692,
      "Ġfootball": 8693,
      "-link": 8694,
      "route": 8695,
      ".auth": 8696,
      "Ġbag": 8697,
      "overs": 8698,
      "Ġenabled": 8699,
      "Ġrac": 8700,
      "(I": 8701,
      "CR": 8702,
      "ancing": 8703,
      "Ġmanaged": 8704,
      "_q": 8705,
      "NGTH": 8706,
      "Ġmac": 8707,
      "ĠAuto": 8708,
      "amente": 8709,
      "Ġ'',": 8710,
      ".Append": 8711,
      "Ġpin": 8712,
      ".item": 8713,
      "acking": 8714,
      "Ġoccas": 8715,
      "person": 8716,
      "Ġti": 8717,
      ".Reg": 8718,
      "Ġhaven": 8719,
      "Ġglass": 8720,
      "Ġ\"</": 8721,
      "ĠSimple": 8722,
      "Print": 8723,
      "Ġsurround": 8724,
      "NO": 8725,
      "ĠĠĠĠĠĠĠĠčĊ": 8726,
      "ĠMany": 8727,
      "Ġ\"_": 8728,
      "Ġweekend": 8729,
      "Ġsomew": 8730,
      ".params": 8731,
      "small": 8732,
      "ATED": 8733,
      "Ġplugin": 8734,
      "fields": 8735,
      "ĠInitialize": 8736,
      "oon": 8737,
      "atile": 8738,
      "ye": 8739,
      "Ġvous": 8740,
      "LAG": 8741,
      "Ġolder": 8742,
      "Ġgam": 8743,
      "Ġextremely": 8744,
      "Ġhet": 8745,
      "enum": 8746,
      "ĠSET": 8747,
      "xff": 8748,
      "Ġtimer": 8749,
      "/index": 8750,
      "Ġcritical": 8751,
      "Rows": 8752,
      "_argument": 8753,
      "Ġexecute": 8754,
      "Ġshowing": 8755,
      ".xml": 8756,
      "-list": 8757,
      "Role": 8758,
      "typename": 8759,
      "_method": 8760,
      "that": 8761,
      "cher": 8762,
      "ĠâĨ": 8763,
      "XT": 8764,
      "Ġthousands": 8765,
      "ĉn": 8766,
      "Ġresp": 8767,
      "_price": 8768,
      "olut": 8769,
      "Ag": 8770,
      "ĠTwo": 8771,
      "Ġbecomes": 8772,
      "Ġhus": 8773,
      ".Use": 8774,
      "theme": 8775,
      "urb": 8776,
      "erialize": 8777,
      "ARN": 8778,
      "Ġlose": 8779,
      "Lower": 8780,
      "Ġvel": 8781,
      "Ġdefense": 8782,
      "condition": 8783,
      "Ġbes": 8784,
      "Ġdry": 8785,
      "Ġscroll": 8786,
      ".Show": 8787,
      "IEL": 8788,
      "Ð¾ÑĢ": 8789,
      "ĠRest": 8790,
      "Where": 8791,
      "oods": 8792,
      "ĠJes": 8793,
      "Ġwire": 8794,
      "_INFO": 8795,
      "Ġstrings": 8796,
      "gment": 8797,
      "Ġmatches": 8798,
      "Ġelectric": 8799,
      "Ġexcellent": 8800,
      "ĠCouncil": 8801,
      "idade": 8802,
      "Ġwx": 8803,
      "push": 8804,
      "_entry": 8805,
      "Ġtasks": 8806,
      "Ġrich": 8807,
      "sa": 8808,
      "ĠSmith": 8809,
      "UNCTION": 8810,
      "Pointer": 8811,
      "pective": 8812,
      "Ġwidget": 8813,
      "ista": 8814,
      "Ġagency": 8815,
      "Ġsich": 8816,
      "ologies": 8817,
      "Ġtrial": 8818,
      "alysis": 8819,
      ".check": 8820,
      "ARK": 8821,
      "ĠonChange": 8822,
      "about": 8823,
      "',$": 8824,
      "(val": 8825,
      "Ġplaced": 8826,
      "_NO": 8827,
      "Ġdan": 8828,
      ".equal": 8829,
      "ĉĠĠĠĠĠ": 8830,
      "Ġweather": 8831,
      ".game": 8832,
      "Ġdestination": 8833,
      "_USER": 8834,
      "iece": 8835,
      "Ġprovider": 8836,
      ".last": 8837,
      "plex": 8838,
      "Note": 8839,
      "/js": 8840,
      "ĠpÃ¥": 8841,
      "Ġplanning": 8842,
      "attribute": 8843,
      "PRO": 8844,
      "atches": 8845,
      "Ġ<-": 8846,
      "Ġseeing": 8847,
      "Ġcancel": 8848,
      "_ind": 8849,
      ".keys": 8850,
      "Ġvisual": 8851,
      "ĠCurrent": 8852,
      "ĠCollege": 8853,
      "ĠRock": 8854,
      "Ġagreement": 8855,
      "ĠStore": 8856,
      "oving": 8857,
      "Ġcorner": 8858,
      "ampions": 8859,
      "ISE": 8860,
      "Fin": 8861,
      "Ġprotection": 8862,
      "Ġfi": 8863,
      "Play": 8864,
      "plugin": 8865,
      ")}": 8866,
      ".frame": 8867,
      "-z": 8868,
      "Ġtransition": 8869,
      "igin": 8870,
      "Ġcandidate": 8871,
      "ĠUnion": 8872,
      "_values": 8873,
      "(map": 8874,
      "cle": 8875,
      "Ġtrend": 8876,
      "wide": 8877,
      "aren": 8878,
      "Loc": 8879,
      "UTH": 8880,
      "ĠBay": 8881,
      "Ġsmaller": 8882,
      "ius": 8883,
      "well": 8884,
      "Ġcriminal": 8885,
      "Ġconflic": 8886,
      "bert": 8887,
      "_INT": 8888,
      "Ġinvestment": 8889,
      "custom": 8890,
      "ĠSession": 8891,
      "_write": 8892,
      "ania": 8893,
      "ĠMass": 8894,
      "_EQ": 8895,
      "_NOT": 8896,
      "Ġviolence": 8897,
      "Argument": 8898,
      "_email": 8899,
      "Ġbelong": 8900,
      "_function": 8901,
      "Ġenemy": 8902,
      "ema": 8903,
      "ĠAddress": 8904,
      ".empty": 8905,
      "Ġinner": 8906,
      "ĠContact": 8907,
      "Loader": 8908,
      "<input": 8909,
      "ĠCA": 8910,
      "lot": 8911,
      "Ġpictures": 8912,
      "ĠSupport": 8913,
      "_names": 8914,
      "Layer": 8915,
      "ĠClick": 8916,
      "Sum": 8917,
      "Ã¦": 8918,
      "ĠLook": 8919,
      "uous": 8920,
      "Lib": 8921,
      "Flags": 8922,
      "team": 8923,
      "EP": 8924,
      "hat": 8925,
      "override": 8926,
      "apsed": 8927,
      "Ġlabels": 8928,
      "quis": 8929,
      "ĠStream": 8930,
      "_device": 8931,
      "ĠCommit": 8932,
      "(root": 8933,
      "\"}": 8934,
      ".isEmpty": 8935,
      "ĉM": 8936,
      "Ġangle": 8937,
      "ĠBecause": 8938,
      "%%%%%%%%": 8939,
      "Ġaim": 8940,
      "Ġstick": 8941,
      "stmt": 8942,
      "agraph": 8943,
      "answer": 8944,
      "Ġclin": 8945,
      "ĠIsl": 8946,
      ".ext": 8947,
      "ĠINT": 8948,
      "Ġstyles": 8949,
      "Ġborn": 8950,
      "Ġscr": 8951,
      "Ġexpand": 8952,
      "Ġraised": 8953,
      "TextBox": 8954,
      "ILL": 8955,
      "------------------------------------------------": 8956,
      "HTTP": 8957,
      ">)": 8958,
      "_char": 8959,
      "resource": 8960,
      "Ġepisode": 8961,
      "Ġ'_": 8962,
      "ĠEs": 8963,
      "ĠEarth": 8964,
      "ÂłÂł": 8965,
      "UPDATE": 8966,
      "ĠSou": 8967,
      "uis": 8968,
      "types": 8969,
      "Ġmas": 8970,
      "Ġfav": 8971,
      "Ġconstruct": 8972,
      "_rate": 8973,
      "eras": 8974,
      "roperties": 8975,
      "Ġexternal": 8976,
      "Ġapplied": 8977,
      "Ġprefix": 8978,
      "oted": 8979,
      "lers": 8980,
      "Ġcold": 8981,
      "ĠSP": 8982,
      "ĠChurch": 8983,
      "ĠOutput": 8984,
      "losed": 8985,
      "ificate": 8986,
      "operation": 8987,
      "herit": 8988,
      "xFF": 8989,
      ".env": 8990,
      "_err": 8991,
      "osh": 8992,
      "Direction": 8993,
      "Cancel": 8994,
      "ĠFrank": 8995,
      "Ġfinding": 8996,
      "Ġrouter": 8997,
      "ãĥ»": 8998,
      "ses": 8999,
      "Ġcrow": 9000,
      "=='": 9001,
      "Ġsand": 9002,
      "Ġrid": 9003,
      "iture": 9004,
      "Ġentre": 9005,
      "Ġobserv": 9006,
      "Ġvac": 9007,
      "ðŁ": 9008,
      "-T": 9009,
      "Art": 9010,
      "night": 9011,
      ".search": 9012,
      "Ġexchange": 9013,
      "Ġdistrict": 9014,
      ".os": 9015,
      "Ġdepartment": 9016,
      "Ġdocuments": 9017,
      "Ġcentury": 9018,
      "ĠNext": 9019,
      "Host": 9020,
      "ĠKIND": 9021,
      "Ġsusp": 9022,
      "-P": 9023,
      "rend": 9024,
      ".em": 9025,
      "uite": 9026,
      "isters": 9027,
      "(json": 9028,
      "ĠAnn": 9029,
      "wt": 9030,
      "ati": 9031,
      "ĠHTML": 9032,
      "when": 9033,
      "Directory": 9034,
      "Ġshut": 9035,
      "<a": 9036,
      "edy": 9037,
      "Ġhealthy": 9038,
      "Ġtemperature": 9039,
      "ĠGen": 9040,
      "Ġmetal": 9041,
      "Ġsubmit": 9042,
      "ĠDO": 9043,
      "Ġattract": 9044,
      "ĠWord": 9045,
      "Ġll": 9046,
      "Ġseemed": 9047,
      "ko": 9048,
      "IED": 9049,
      "Ġlabor": 9050,
      ".Context": 9051,
      "Ġasset": 9052,
      "you": 9053,
      "Ġcars": 9054,
      "ĠColumn": 9055,
      "ĠrÃ©": 9056,
      "Ġsquare": 9057,
      "ĠNSString": 9058,
      "âĢĿ,": 9059,
      "apes": 9060,
      "Ġthanks": 9061,
      "(props": 9062,
      "Ġtick": 9063,
      "Ġexperiment": 9064,
      "Ġprison": 9065,
      "tree": 9066,
      "-text": 9067,
      "ĠIOException": 9068,
      "-width": 9069,
      "_STATUS": 9070,
      "fast": 9071,
      "-body": 9072,
      "-header": 9073,
      "Ġguar": 9074,
      "crete": 9075,
      "ĠTim": 9076,
      "Ġclearly": 9077,
      "ĠRepublican": 9078,
      "Ġjustify": 9079,
      "Ð¸ÑĤ": 9080,
      "ĉĠĠĠĠ": 9081,
      "cache": 9082,
      ";//": 9083,
      "Ġpresence": 9084,
      "Ġfactors": 9085,
      "Ġemployee": 9086,
      "]))": 9087,
      "Member": 9088,
      "Ġselector": 9089,
      "bor": 9090,
      "ĠMex": 9091,
      "utex": 9092,
      "_tag": 9093,
      "ailure": 9094,
      "ĠNet": 9095,
      "Ġreli": 9096,
      "EG": 9097,
      "Ġfprintf": 9098,
      "Ġteen": 9099,
      "loss": 9100,
      "Ġleaving": 9101,
      "Delegate": 9102,
      "Ġbeat": 9103,
      "Ġminute": 9104,
      "subscribe": 9105,
      "Ġredistribute": 9106,
      "Constants": 9107,
      "Ġcancer": 9108,
      "/{": 9109,
      "BL": 9110,
      "Ġspan": 9111,
      "ĠChild": 9112,
      "Center": 9113,
      "Ġearth": 9114,
      "YS": 9115,
      "ĠLevel": 9116,
      "Ġsea": 9117,
      ".support": 9118,
      ".inner": 9119,
      ".Item": 9120,
      "illing": 9121,
      "ĠĠĠĠĊĠĠĠĠĊ": 9122,
      "ĠLabel": 9123,
      "ĠEst": 9124,
      "(arg": 9125,
      "boBox": 9126,
      "ĉforeach": 9127,
      "cos": 9128,
      "Failed": 9129,
      "swers": 9130,
      "Editor": 9131,
      "ront": 9132,
      "ĠMP": 9133,
      "expr": 9134,
      "ĠLife": 9135,
      "Ġ??": 9136,
      "Ã¶r": 9137,
      "Ġattend": 9138,
      "ĠQue": 9139,
      "Ġspecies": 9140,
      "-D": 9141,
      "Ġaus": 9142,
      "Struct": 9143,
      "Ġadvantage": 9144,
      "oston": 9145,
      "-block": 9146,
      "initial": 9147,
      "CRE": 9148,
      "Ġtruly": 9149,
      "Ġcompare": 9150,
      "orney": 9151,
      "Ġspect": 9152,
      "Full": 9153,
      "bes": 9154,
      "Ġvisible": 9155,
      "Ġmess": 9156,
      "stances": 9157,
      "Ġcloud": 9158,
      "_version": 9159,
      "Ġfurn": 9160,
      "icago": 9161,
      "LOW": 9162,
      "Ġtraffic": 9163,
      "Ġfol": 9164,
      "rypto": 9165,
      "Ġdeclar": 9166,
      "Ġslot": 9167,
      "ĠExt": 9168,
      "ĠEngland": 9169,
      "ĠUnder": 9170,
      "Ġta": 9171,
      "letter": 9172,
      "Ġofficer": 9173,
      "ĠDonald": 9174,
      "Yes": 9175,
      "_json": 9176,
      "ITableView": 9177,
      "ĠUSE": 9178,
      "mployee": 9179,
      "Ġopinion": 9180,
      "ĠAut": 9181,
      "border": 9182,
      "Ġadvice": 9183,
      "Ġautomatically": 9184,
      "isco": 9185,
      "Ġmm": 9186,
      ".vis": 9187,
      "aml": 9188,
      "Ġinitialize": 9189,
      "Ġ({": 9190,
      "Ġgeneration": 9191,
      "Ġbits": 9192,
      "clipse": 9193,
      "Ġunf": 9194,
      "utors": 9195,
      "plt": 9196,
      "Ġdelta": 9197,
      "estroy": 9198,
      "isis": 9199,
      "<br": 9200,
      "Ġlimitations": 9201,
      "Ġended": 9202,
      "ĠMad": 9203,
      "ilm": 9204,
      "These": 9205,
      "ĠMinister": 9206,
      "Ġchart": 9207,
      "Fragment": 9208,
      "Ġindependent": 9209,
      "Year": 9210,
      "Ġinstr": 9211,
      "Ġtags": 9212,
      "AVE": 9213,
      "ĠArch": 9214,
      "stop": 9215,
      "Progress": 9216,
      "Ġmi": 9217,
      "Ġlearned": 9218,
      "Ge": 9219,
      "Ġhotel": 9220,
      "SM": 9221,
      "TYPE": 9222,
      "Ġcy": 9223,
      "ERSION": 9224,
      "unately": 9225,
      "limit": 9226,
      "sel": 9227,
      "Ġmovies": 9228,
      "Ġsteel": 9229,
      "oz": 9230,
      "gb": 9231,
      "ĠCamp": 9232,
      "site": 9233,
      "ĠLogger": 9234,
      "PLE": 9235,
      ".right": 9236,
      "ĠCore": 9237,
      "Ġmixed": 9238,
      "step": 9239,
      "Ġputs": 9240,
      "super": 9241,
      "Router": 9242,
      ".Http": 9243,
      "lyph": 9244,
      "ĠColors": 9245,
      "Ġandroidx": 9246,
      ".str": 9247,
      "Ġinnov": 9248,
      "Ġdeck": 9249,
      "apers": 9250,
      "](": 9251,
      "continue": 9252,
      "spec": 9253,
      "ĠRoad": 9254,
      "ASH": 9255,
      "iliar": 9256,
      "Ġcontinues": 9257,
      "Ġappoint": 9258,
      "ĠVir": 9259,
      "Ġ?>\"": 9260,
      "Ġbin": 9261,
      "}\",": 9262,
      "going": 9263,
      "each": 9264,
      "BD": 9265,
      "ĠAccess": 9266,
      "Doc": 9267,
      "ĠManagement": 9268,
      "BER": 9269,
[...]
